/*
 * Copyright (c) 2025 EdgeImpulse Inc.
 *
 * Generated by Edge Impulse and licensed under the applicable Edge Impulse
 * Terms of Service. Community and Professional Terms of Service
 * (https://edgeimpulse.com/legal/terms-of-service) or Enterprise Terms of
 * Service (https://edgeimpulse.com/legal/enterprise-terms-of-service),
 * according to your product plan subscription (the “License”).
 *
 * This software, documentation and other associated files (collectively referred
 * to as the “Software”) is a single SDK variation generated by the Edge Impulse
 * platform and requires an active paid Edge Impulse subscription to use this
 * Software for any purpose.
 *
 * You may NOT use this Software unless you have an active Edge Impulse subscription
 * that meets the eligibility requirements for the applicable License, subject to
 * your full and continued compliance with the terms and conditions of the License,
 * including without limitation any usage restrictions under the applicable License.
 *
 * If you do not have an active Edge Impulse product plan subscription, or if use
 * of this Software exceeds the usage limitations of your Edge Impulse product plan
 * subscription, you are not permitted to use this Software and must immediately
 * delete and erase all copies of this Software within your control or possession.
 * Edge Impulse reserves all rights and remedies available to enforce its rights.
 *
 * Unless required by applicable law or agreed to in writing, the Software is
 * distributed on an "AS IS" BASIS, WITHOUT WARRANTIES OR CONDITIONS OF ANY KIND,
 * either express or implied. See the License for the specific language governing
 * permissions, disclaimers and limitations under the License.
 */

#ifndef _EI_CLASSIFIER_TFLITE_LEARN_811836_167_H_
#define _EI_CLASSIFIER_TFLITE_LEARN_811836_167_H_

#define EI_CLASSIFIER_TFLITE_LEARN_811836_167_ARENA_SIZE     3251
const size_t tflite_learn_811836_167_arena_size = 3251;

#if defined __GNUC__
#define ALIGN(X) __attribute__((aligned(X)))
#elif defined _MSC_VER
#define ALIGN(X) __declspec(align(X))
#elif defined __TASKING__
#define ALIGN(X) __align(X)
#else
#define ALIGN(X)
#endif

#if defined(EI_MODEL_SECTION) && (defined(__GNUC__) || defined(__clang__))
#define STRINGIZE(x) #x
#define STRINGIZE_VALUE_OF(x) STRINGIZE(x)
#define MODEL_SECTION(X) __attribute__((section(STRINGIZE_VALUE_OF(X))))
#else
#define MODEL_SECTION(X)
#endif


MODEL_SECTION(EI_MODEL_SECTION) ALIGN(16) const unsigned char tflite_learn_811836_167[] = {
  0x1c, 0x00, 0x00, 0x00, 0x54, 0x46, 0x4c, 0x33, 0x14, 0x00, 0x20, 0x00,
  0x1c, 0x00, 0x18, 0x00, 0x14, 0x00, 0x10, 0x00, 0x0c, 0x00, 0x00, 0x00,
  0x08, 0x00, 0x04, 0x00, 0x14, 0x00, 0x00, 0x00, 0x1c, 0x00, 0x00, 0x00,
  0x8c, 0x00, 0x00, 0x00, 0xe4, 0x00, 0x00, 0x00, 0xc8, 0x23, 0x00, 0x00,
  0xd8, 0x23, 0x00, 0x00, 0x1c, 0x29, 0x00, 0x00, 0x03, 0x00, 0x00, 0x00,
  0x01, 0x00, 0x00, 0x00, 0x10, 0x00, 0x00, 0x00, 0x00, 0x00, 0x0a, 0x00,
  0x10, 0x00, 0x0c, 0x00, 0x08, 0x00, 0x04, 0x00, 0x0a, 0x00, 0x00, 0x00,
  0x0c, 0x00, 0x00, 0x00, 0x1c, 0x00, 0x00, 0x00, 0x3c, 0x00, 0x00, 0x00,
  0x0f, 0x00, 0x00, 0x00, 0x73, 0x65, 0x72, 0x76, 0x69, 0x6e, 0x67, 0x5f,
  0x64, 0x65, 0x66, 0x61, 0x75, 0x6c, 0x74, 0x00, 0x01, 0x00, 0x00, 0x00,
  0x04, 0x00, 0x00, 0x00, 0x9c, 0xff, 0xff, 0xff, 0x0a, 0x00, 0x00, 0x00,
  0x04, 0x00, 0x00, 0x00, 0x08, 0x00, 0x00, 0x00, 0x6f, 0x75, 0x74, 0x70,
  0x75, 0x74, 0x5f, 0x30, 0x00, 0x00, 0x00, 0x00, 0x01, 0x00, 0x00, 0x00,
  0x04, 0x00, 0x00, 0x00, 0x1e, 0xdc, 0xff, 0xff, 0x04, 0x00, 0x00, 0x00,
  0x01, 0x00, 0x00, 0x00, 0x78, 0x00, 0x00, 0x00, 0x02, 0x00, 0x00, 0x00,
  0x34, 0x00, 0x00, 0x00, 0x04, 0x00, 0x00, 0x00, 0xdc, 0xff, 0xff, 0xff,
  0x0d, 0x00, 0x00, 0x00, 0x04, 0x00, 0x00, 0x00, 0x13, 0x00, 0x00, 0x00,
  0x43, 0x4f, 0x4e, 0x56, 0x45, 0x52, 0x53, 0x49, 0x4f, 0x4e, 0x5f, 0x4d,
  0x45, 0x54, 0x41, 0x44, 0x41, 0x54, 0x41, 0x00, 0x08, 0x00, 0x0c, 0x00,
  0x08, 0x00, 0x04, 0x00, 0x08, 0x00, 0x00, 0x00, 0x0c, 0x00, 0x00, 0x00,
  0x04, 0x00, 0x00, 0x00, 0x13, 0x00, 0x00, 0x00, 0x6d, 0x69, 0x6e, 0x5f,
  0x72, 0x75, 0x6e, 0x74, 0x69, 0x6d, 0x65, 0x5f, 0x76, 0x65, 0x72, 0x73,
  0x69, 0x6f, 0x6e, 0x00, 0x0e, 0x00, 0x00, 0x00, 0xe0, 0x22, 0x00, 0x00,
  0xd8, 0x22, 0x00, 0x00, 0xa0, 0x22, 0x00, 0x00, 0x18, 0x22, 0x00, 0x00,
  0x00, 0x22, 0x00, 0x00, 0xd0, 0x05, 0x00, 0x00, 0x10, 0x01, 0x00, 0x00,
  0xb0, 0x00, 0x00, 0x00, 0xa8, 0x00, 0x00, 0x00, 0xa0, 0x00, 0x00, 0x00,
  0x98, 0x00, 0x00, 0x00, 0x90, 0x00, 0x00, 0x00, 0x70, 0x00, 0x00, 0x00,
  0x04, 0x00, 0x00, 0x00, 0xc6, 0xdc, 0xff, 0xff, 0x04, 0x00, 0x00, 0x00,
  0x5c, 0x00, 0x00, 0x00, 0x0c, 0x00, 0x00, 0x00, 0x08, 0x00, 0x0e, 0x00,
  0x08, 0x00, 0x04, 0x00, 0x08, 0x00, 0x00, 0x00, 0x14, 0x00, 0x00, 0x00,
  0x2c, 0x00, 0x00, 0x00, 0x00, 0x00, 0x0a, 0x00, 0x0c, 0x00, 0x08, 0x00,
  0x00, 0x00, 0x07, 0x00, 0x0a, 0x00, 0x00, 0x00, 0x00, 0x00, 0x00, 0x01,
  0x04, 0x00, 0x00, 0x00, 0x00, 0x00, 0x00, 0x00, 0x00, 0x00, 0x0a, 0x00,
  0x10, 0x00, 0x0c, 0x00, 0x08, 0x00, 0x04, 0x00, 0x0a, 0x00, 0x00, 0x00,
  0x03, 0x00, 0x00, 0x00, 0x02, 0x00, 0x00, 0x00, 0x04, 0x00, 0x00, 0x00,
  0x06, 0x00, 0x00, 0x00, 0x32, 0x2e, 0x31, 0x31, 0x2e, 0x31, 0x00, 0x00,
  0x2e, 0xdd, 0xff, 0xff, 0x04, 0x00, 0x00, 0x00, 0x10, 0x00, 0x00, 0x00,
  0x31, 0x2e, 0x35, 0x2e, 0x30, 0x00, 0x00, 0x00, 0x00, 0x00, 0x00, 0x00,
  0x00, 0x00, 0x00, 0x00, 0xa8, 0xd8, 0xff, 0xff, 0xac, 0xd8, 0xff, 0xff,
  0xb0, 0xd8, 0xff, 0xff, 0xb4, 0xd8, 0xff, 0xff, 0x5a, 0xdd, 0xff, 0xff,
  0x04, 0x00, 0x00, 0x00, 0x50, 0x00, 0x00, 0x00, 0xd9, 0x02, 0x03, 0x3f,
  0xd2, 0x8f, 0x39, 0xbf, 0x92, 0xb7, 0x27, 0x3f, 0x7e, 0x80, 0x18, 0x3f,
  0x28, 0x55, 0x33, 0x3f, 0x05, 0x66, 0xee, 0xbe, 0x67, 0x2c, 0x0b, 0xbd,
  0xc2, 0x88, 0x27, 0xbf, 0x84, 0x81, 0xe4, 0x3d, 0xec, 0x02, 0x14, 0x3f,
  0x9e, 0xb9, 0x91, 0x3e, 0xf6, 0x06, 0x72, 0x3e, 0x69, 0x1e, 0xc2, 0xbe,
  0x35, 0x50, 0x03, 0xbe, 0x25, 0x49, 0x0c, 0xbf, 0x32, 0x91, 0x9f, 0x3c,
  0xd3, 0x03, 0x5e, 0xbf, 0xb2, 0x65, 0xbb, 0x3e, 0x7f, 0x64, 0x15, 0xbf,
  0x56, 0x90, 0xf0, 0x3d, 0xb6, 0xdd, 0xff, 0xff, 0x04, 0x00, 0x00, 0x00,
  0xb0, 0x04, 0x00, 0x00, 0x32, 0xdb, 0xe0, 0x3d, 0x69, 0xb6, 0x7d, 0xbe,
  0x2b, 0x4a, 0x3b, 0xbe, 0x05, 0xdb, 0x50, 0x3d, 0x2e, 0xf5, 0xb9, 0x3e,
  0x46, 0x4a, 0x1b, 0x3e, 0x2b, 0xaa, 0xaa, 0x3e, 0x8c, 0x07, 0xd9, 0xbe,
  0xee, 0x17, 0x88, 0xbd, 0x2a, 0xe8, 0x14, 0xbf, 0xeb, 0x59, 0x77, 0x3d,
  0xe6, 0xf8, 0xfa, 0x3d, 0x11, 0xf5, 0x78, 0x3e, 0xe0, 0xd0, 0xe9, 0x3e,
  0x98, 0xd4, 0x99, 0x3d, 0xa1, 0x45, 0xb3, 0xbe, 0x3b, 0x28, 0x73, 0xbd,
  0x65, 0x78, 0xe6, 0xbd, 0x4b, 0xed, 0xad, 0xbe, 0x91, 0x3f, 0x08, 0x3d,
  0xbe, 0x02, 0xba, 0x3d, 0x93, 0xd9, 0x9b, 0xbe, 0xa8, 0x53, 0x9b, 0x3e,
  0x7d, 0x04, 0x7c, 0x3d, 0xfa, 0x3a, 0x11, 0xbf, 0x8c, 0xdc, 0x23, 0xbd,
  0x0f, 0xd7, 0xa8, 0x3e, 0x0e, 0x32, 0x84, 0x3e, 0x53, 0xad, 0x3a, 0xbe,
  0xf6, 0x9a, 0xa9, 0x3e, 0x43, 0x9c, 0xf3, 0xbd, 0x0a, 0x5d, 0xf2, 0xbe,
  0xcd, 0xd6, 0x15, 0x3e, 0xbc, 0x3a, 0x2e, 0x3e, 0xef, 0xaf, 0x93, 0xbd,
  0x52, 0x01, 0x71, 0xbe, 0x17, 0xbc, 0xfb, 0xbd, 0x35, 0x35, 0xbc, 0xbe,
  0xf3, 0xde, 0x88, 0xbe, 0x16, 0x82, 0x75, 0x3e, 0xcc, 0x02, 0x84, 0xbe,
  0xa6, 0x25, 0x5f, 0xbe, 0xa7, 0xfe, 0x45, 0x3e, 0x16, 0xef, 0xd0, 0xbc,
  0xa0, 0xfe, 0xd1, 0x3e, 0xb1, 0x61, 0x12, 0x3f, 0xd8, 0xc7, 0x5a, 0xbd,
  0x57, 0xe3, 0xe4, 0x3d, 0xef, 0x7f, 0x36, 0xbe, 0xb0, 0x2e, 0x9b, 0xbd,
  0x4b, 0x72, 0xb3, 0x3d, 0xc1, 0xec, 0x61, 0xbe, 0x60, 0x63, 0xcc, 0xbe,
  0x05, 0x54, 0x76, 0x3e, 0x34, 0xa3, 0xee, 0x3e, 0xbf, 0x36, 0xcd, 0x3d,
  0xc2, 0x22, 0x87, 0xbe, 0x18, 0x95, 0x7f, 0x3c, 0x0d, 0xdd, 0x7b, 0xbe,
  0x03, 0x07, 0x67, 0xbe, 0x22, 0x5d, 0xda, 0xbd, 0xf9, 0x03, 0x4b, 0x3c,
  0xe9, 0x7c, 0x0a, 0xbe, 0xe4, 0x80, 0xd9, 0x3e, 0x26, 0x06, 0x3d, 0xbe,
  0xae, 0x77, 0x28, 0xbe, 0x22, 0xa2, 0x81, 0xbe, 0x96, 0xf1, 0x5f, 0xbd,
  0x40, 0x7a, 0x41, 0xbe, 0x43, 0xac, 0x46, 0xbe, 0xd9, 0xa9, 0x8f, 0x3e,
  0xbc, 0xaa, 0x36, 0x3e, 0xe5, 0x19, 0x2d, 0xbd, 0x56, 0x5b, 0x9c, 0xbe,
  0xf5, 0xdd, 0xab, 0xbe, 0x06, 0xc7, 0x66, 0xbe, 0x51, 0x0a, 0xc7, 0x3e,
  0xff, 0xcd, 0x04, 0xbf, 0xa9, 0x02, 0xb6, 0xbe, 0xbb, 0x50, 0xbd, 0xbe,
  0x75, 0x02, 0x8c, 0xbe, 0x23, 0xa1, 0x05, 0x3e, 0xbe, 0x5c, 0xb2, 0x3d,
  0xfb, 0x3f, 0xc2, 0xbe, 0x22, 0xe6, 0x62, 0x3e, 0x76, 0x46, 0xb0, 0xbe,
  0x3a, 0xcc, 0x56, 0x3d, 0xe0, 0x2b, 0xa6, 0xbd, 0x10, 0x33, 0x90, 0xbc,
  0x2a, 0xb7, 0xd3, 0x3e, 0x35, 0x58, 0x6b, 0x3e, 0x29, 0xe1, 0x0a, 0x3d,
  0xdf, 0xe8, 0xa9, 0x3e, 0x86, 0x5b, 0x9e, 0x3d, 0xee, 0xe7, 0x87, 0xbe,
  0xd9, 0x2c, 0x99, 0x3e, 0xb2, 0x02, 0x99, 0xbe, 0x7d, 0xb3, 0x28, 0xbe,
  0x80, 0xae, 0x8e, 0xbd, 0xa3, 0x98, 0x0f, 0x3e, 0x52, 0x73, 0x4d, 0x3e,
  0xd8, 0x00, 0x5b, 0x3e, 0xd0, 0xd9, 0x04, 0xbe, 0x6c, 0x81, 0xa1, 0xbe,
  0x3f, 0xa4, 0xdb, 0xbd, 0x4e, 0x5d, 0x87, 0xbe, 0x69, 0x38, 0x6a, 0xbe,
  0x1c, 0x40, 0x4c, 0xbe, 0xd0, 0xbf, 0xc2, 0x3e, 0x28, 0xa1, 0x7c, 0x3e,
  0xdd, 0xe4, 0x5f, 0x3e, 0x06, 0x38, 0x67, 0x3e, 0xba, 0x6e, 0x6b, 0xbe,
  0xb5, 0x5f, 0x03, 0xbe, 0xfe, 0x35, 0x23, 0xbd, 0x9a, 0xfd, 0xc2, 0xbe,
  0xd3, 0x13, 0x21, 0x3c, 0x8e, 0xcb, 0x53, 0xbc, 0x50, 0x31, 0x74, 0xbd,
  0xee, 0x07, 0x88, 0x3e, 0xa5, 0xb3, 0x6a, 0xbe, 0x76, 0x27, 0x2a, 0x3e,
  0xb8, 0xb0, 0xb6, 0xbe, 0xc3, 0xd5, 0xbe, 0xbe, 0x94, 0x8d, 0xc7, 0xbe,
  0x51, 0xf3, 0x80, 0x3e, 0x8a, 0x2c, 0x59, 0xba, 0x2c, 0xe8, 0x74, 0x3d,
  0x4c, 0x9a, 0x96, 0xbe, 0x94, 0xec, 0xd9, 0x3d, 0x9d, 0xb2, 0x5b, 0x3e,
  0xe4, 0x83, 0x52, 0x3e, 0xfe, 0xd4, 0x20, 0xbe, 0x98, 0x04, 0x17, 0x3e,
  0x67, 0x38, 0x86, 0x3d, 0x34, 0xff, 0x14, 0xbe, 0x1d, 0xce, 0xc1, 0xbd,
  0x61, 0xa6, 0x9f, 0x3e, 0x16, 0xaa, 0x61, 0x3e, 0x3f, 0xf4, 0x2f, 0x3e,
  0x08, 0xab, 0xcf, 0xbe, 0xf1, 0xd4, 0xd2, 0xbd, 0x0f, 0x36, 0xa9, 0x3e,
  0x51, 0x7e, 0x46, 0xbe, 0x8a, 0xc9, 0x16, 0xbe, 0x40, 0x02, 0xc9, 0xbe,
  0xd5, 0x8b, 0x0a, 0x3b, 0x85, 0x1c, 0x58, 0x3e, 0x18, 0xf2, 0x5a, 0x3e,
  0xc4, 0x89, 0x44, 0xbe, 0x56, 0x34, 0xfe, 0xbe, 0x60, 0xda, 0x51, 0x3e,
  0xc9, 0xdf, 0x34, 0xbe, 0x61, 0x42, 0x56, 0x3e, 0xac, 0x5e, 0xe3, 0xbd,
  0x11, 0x94, 0xdc, 0xbe, 0x2f, 0x25, 0xd5, 0x3c, 0x80, 0xb4, 0x47, 0x3e,
  0xb9, 0xca, 0x5a, 0xbe, 0x26, 0x57, 0x14, 0x3d, 0x4d, 0xeb, 0x8d, 0x3e,
  0x7c, 0x21, 0x84, 0x3e, 0xb3, 0xa2, 0x49, 0xbe, 0xae, 0xc1, 0xc5, 0x3d,
  0x33, 0xe1, 0xce, 0xbd, 0x57, 0xc6, 0x19, 0xbe, 0x86, 0xf5, 0x5f, 0xbe,
  0x89, 0x91, 0x48, 0x3e, 0xb3, 0xc4, 0x4a, 0xbe, 0x5e, 0x37, 0xa4, 0x3d,
  0xf5, 0x57, 0x51, 0xbe, 0x7e, 0xe4, 0x8e, 0x3e, 0xf7, 0x34, 0xf7, 0x3c,
  0x2b, 0x78, 0x28, 0xbe, 0xbc, 0x93, 0x36, 0x3d, 0x09, 0x11, 0xb5, 0x3e,
  0x21, 0x44, 0x86, 0xbe, 0xcf, 0xf1, 0x18, 0x3e, 0x93, 0xc1, 0x95, 0x3d,
  0xad, 0xdb, 0xe0, 0xbe, 0xbe, 0x43, 0xaf, 0x3e, 0xfe, 0x75, 0xec, 0x3d,
  0x7e, 0x1d, 0xc7, 0xbe, 0x19, 0x20, 0x43, 0xbe, 0x85, 0xd5, 0x4a, 0x3e,
  0x41, 0x27, 0x93, 0x3e, 0xbc, 0x73, 0xf1, 0x3d, 0x70, 0xbf, 0x3a, 0xbe,
  0xbe, 0x68, 0x3a, 0xbe, 0xcd, 0x45, 0x31, 0xbe, 0x30, 0x57, 0x28, 0x3e,
  0xd1, 0x66, 0x12, 0x3e, 0x06, 0x45, 0x26, 0xbe, 0x7f, 0x23, 0x59, 0xbe,
  0x45, 0x7b, 0x3f, 0x3e, 0xf7, 0x0c, 0x1d, 0x3e, 0x7d, 0x81, 0x86, 0x3e,
  0x01, 0x8f, 0x99, 0xbc, 0x7f, 0xd1, 0x17, 0xbe, 0xaa, 0x4d, 0x28, 0xbe,
  0x10, 0xa3, 0x4c, 0xbe, 0xc8, 0x8a, 0x06, 0xbe, 0x0e, 0x00, 0x92, 0xbc,
  0x61, 0xef, 0xc0, 0xbe, 0x73, 0x45, 0x21, 0x3d, 0x1b, 0x95, 0x75, 0xbe,
  0x6c, 0x14, 0x98, 0xbe, 0xd7, 0x47, 0x60, 0x3e, 0xb0, 0x69, 0x8c, 0xbe,
  0x12, 0xb7, 0x90, 0x3e, 0xbf, 0x08, 0x03, 0xbe, 0x5d, 0x69, 0x8b, 0x3e,
  0x08, 0x67, 0xae, 0x3d, 0x84, 0xf3, 0x5c, 0x3e, 0x4e, 0x27, 0xa4, 0xbd,
  0x59, 0xba, 0x31, 0x3e, 0xb5, 0xd5, 0x88, 0x3e, 0xc9, 0x74, 0xc3, 0xbe,
  0x6c, 0x22, 0xc6, 0x3e, 0x74, 0xd9, 0xb5, 0x3d, 0xdf, 0x3f, 0xe0, 0xbd,
  0x2c, 0x72, 0xe1, 0x3e, 0x6e, 0x64, 0x1f, 0x3e, 0x34, 0xc7, 0x0a, 0xbe,
  0x9f, 0x40, 0x62, 0xbe, 0x81, 0x7f, 0xaf, 0x3e, 0x89, 0x62, 0xaa, 0x3e,
  0xba, 0xff, 0x94, 0x3d, 0xa2, 0xba, 0x5a, 0x3d, 0xe7, 0xd0, 0xa3, 0x3e,
  0x20, 0xa5, 0x27, 0x3e, 0x12, 0x3a, 0x68, 0x3e, 0xf5, 0x1e, 0x90, 0xbe,
  0x66, 0xe5, 0x3d, 0xbe, 0x5a, 0xde, 0xc8, 0x3e, 0xa6, 0x09, 0x07, 0x3f,
  0xd3, 0xd6, 0xba, 0xbe, 0xe9, 0xa5, 0xcc, 0x3e, 0x5d, 0xdc, 0x98, 0xbe,
  0x43, 0x17, 0x52, 0xbe, 0x62, 0x09, 0x84, 0x3e, 0xaa, 0x5a, 0x47, 0x3e,
  0xb8, 0xc5, 0x3d, 0x3e, 0xa5, 0x4a, 0x4e, 0x3e, 0x7f, 0xbc, 0xc0, 0x3e,
  0xf1, 0xa7, 0x06, 0x3e, 0xcf, 0x4f, 0x11, 0xbf, 0x23, 0x86, 0xd0, 0xbd,
  0xf6, 0xf7, 0x10, 0xbe, 0x6d, 0x0d, 0xf7, 0xbb, 0xce, 0xa7, 0xbd, 0x3e,
  0xdd, 0x1a, 0xe9, 0x3d, 0xd3, 0xf0, 0x50, 0x3d, 0x58, 0x34, 0x75, 0xbe,
  0xbc, 0x95, 0x47, 0xbe, 0x6a, 0x67, 0xdf, 0x3d, 0x54, 0xf1, 0xcc, 0xbe,
  0xcc, 0xbe, 0x5a, 0x3e, 0xeb, 0xd0, 0xb7, 0xbd, 0x75, 0xdf, 0x4e, 0xbe,
  0xba, 0x88, 0xce, 0x3c, 0xa9, 0x49, 0xb3, 0xbe, 0x8d, 0x3b, 0xcb, 0x3e,
  0x07, 0xd1, 0x59, 0x3e, 0x07, 0x55, 0x46, 0x3e, 0xfd, 0x49, 0xba, 0xbe,
  0x20, 0x76, 0x5c, 0x3e, 0x53, 0x3f, 0xb4, 0xbe, 0xd0, 0x32, 0xa0, 0x3d,
  0x0e, 0x9d, 0x16, 0xbd, 0xcd, 0x8e, 0x49, 0x3e, 0xaf, 0x2e, 0x4c, 0xbe,
  0x20, 0x31, 0x4d, 0xbd, 0x11, 0x0b, 0x61, 0xbe, 0x5e, 0xda, 0xb2, 0x3e,
  0xb4, 0x0a, 0xc4, 0x3e, 0x81, 0x5a, 0xc7, 0xbd, 0xdc, 0xbf, 0xa8, 0x3b,
  0x80, 0x57, 0x36, 0x3d, 0xc8, 0x16, 0xd1, 0xbe, 0x4a, 0x4d, 0x91, 0xbe,
  0xe1, 0x09, 0xfb, 0x3d, 0x4a, 0x91, 0xa0, 0xbe, 0x35, 0x86, 0x4c, 0xbe,
  0xd6, 0xde, 0xa4, 0x3d, 0x2f, 0xeb, 0x96, 0xbd, 0xbc, 0x48, 0x6d, 0xbe,
  0x10, 0xd3, 0xab, 0x3e, 0x80, 0x33, 0x2f, 0x3e, 0x65, 0x30, 0x9d, 0x3e,
  0x5a, 0xb5, 0x86, 0x3e, 0x81, 0xd0, 0xeb, 0xbe, 0x22, 0x83, 0x95, 0xbe,
  0xfe, 0x7c, 0x3c, 0x3d, 0xd8, 0x14, 0x41, 0x3d, 0xcb, 0xe3, 0xbb, 0xbe,
  0xef, 0x63, 0x87, 0xbe, 0xfd, 0x03, 0x1a, 0x3b, 0x8c, 0x7c, 0xe6, 0x3d,
  0xc4, 0xe2, 0x9a, 0xbe, 0x72, 0xe2, 0xff, 0xff, 0x04, 0x00, 0x00, 0x00,
  0x20, 0x1c, 0x00, 0x00, 0x9f, 0xd9, 0x2d, 0xbc, 0xc8, 0x0c, 0x1a, 0x3c,
  0xaa, 0x6c, 0x67, 0x3e, 0x20, 0xcd, 0x9b, 0xbe, 0xa6, 0x8c, 0x16, 0x3e,
  0xcb, 0xaf, 0x02, 0x3e, 0x5b, 0x84, 0x01, 0xbe, 0x2a, 0xde, 0xe4, 0xbc,
  0xe9, 0x38, 0xd9, 0xbd, 0x42, 0x59, 0x00, 0xbe, 0x35, 0x38, 0x6a, 0x3e,
  0x7e, 0x3a, 0x7c, 0xbc, 0xe9, 0x62, 0xdd, 0x3d, 0xc1, 0xf7, 0xac, 0xbc,
  0x53, 0x7a, 0x66, 0xbe, 0x7d, 0x8a, 0x03, 0xbe, 0x3f, 0x31, 0xca, 0xbe,
  0xb5, 0x10, 0xdd, 0xbb, 0xe3, 0x6d, 0x8b, 0xbe, 0x49, 0x88, 0xc6, 0x3e,
  0xc7, 0x06, 0x8b, 0xbd, 0xc4, 0xd5, 0x03, 0xbe, 0xa1, 0xf0, 0xfd, 0xbd,
  0x71, 0x51, 0xaa, 0x3e, 0xea, 0xf6, 0x57, 0xbe, 0xd5, 0xbb, 0x65, 0xbe,
  0xd5, 0x5e, 0x6e, 0xbe, 0x30, 0x8b, 0xa7, 0x3d, 0x4c, 0x6c, 0x9a, 0xbe,
  0x5d, 0x0c, 0xf1, 0xbd, 0xb6, 0xf9, 0x1f, 0x3e, 0xfa, 0x7e, 0xa3, 0xbc,
  0xa1, 0xe4, 0xfe, 0xbc, 0x8a, 0x92, 0x7a, 0x3e, 0x34, 0x38, 0x7e, 0xbe,
  0x30, 0x6f, 0x39, 0x3e, 0xb9, 0xe7, 0x94, 0xbe, 0x6c, 0x9f, 0x5e, 0x3d,
  0xfb, 0x7c, 0xdc, 0xbd, 0x52, 0xc4, 0x97, 0x3d, 0xa5, 0x6a, 0xf9, 0x3d,
  0x03, 0x6c, 0x31, 0x3d, 0x1a, 0xb8, 0x3f, 0xbe, 0x6b, 0x35, 0xf9, 0x3b,
  0x00, 0x3f, 0xbc, 0x3d, 0xc5, 0xc1, 0x8d, 0x3e, 0x6c, 0x8e, 0xa8, 0x3d,
  0x88, 0x74, 0x54, 0x3d, 0xde, 0xab, 0x48, 0x3d, 0x7b, 0xbb, 0x6e, 0xbe,
  0xf7, 0x6e, 0x75, 0xbe, 0xc5, 0x95, 0x48, 0xbb, 0xe5, 0xae, 0x34, 0xbe,
  0xe3, 0x45, 0xe2, 0x3d, 0x2b, 0xb7, 0x20, 0xbe, 0x22, 0xb7, 0xda, 0x3d,
  0xe2, 0x41, 0x6b, 0xbd, 0x18, 0x05, 0x68, 0x3e, 0x68, 0x83, 0x89, 0x3d,
  0x12, 0x78, 0x81, 0xbd, 0x2a, 0x22, 0x83, 0xbe, 0x17, 0xe5, 0xb7, 0x3d,
  0xa8, 0xf9, 0xf3, 0x3c, 0xdb, 0x2e, 0x02, 0xbe, 0x03, 0x99, 0x09, 0x3d,
  0x53, 0xc2, 0x32, 0xbe, 0x3f, 0xa4, 0x4e, 0x3e, 0xc2, 0x14, 0x83, 0x3e,
  0x98, 0xab, 0x46, 0xbd, 0x48, 0x07, 0x9a, 0x3e, 0x92, 0x06, 0x42, 0xbe,
  0xad, 0xde, 0x76, 0xbd, 0x79, 0xeb, 0x1c, 0x3e, 0xac, 0x14, 0xbf, 0xbc,
  0xcc, 0x20, 0x15, 0xbd, 0x4e, 0x7e, 0x4b, 0x3e, 0x56, 0x0f, 0x0e, 0x3e,
  0x9a, 0x17, 0x1a, 0x3e, 0x24, 0x70, 0x30, 0x3e, 0xd0, 0x0a, 0x88, 0x3e,
  0x76, 0xab, 0x27, 0xbd, 0xd9, 0x3a, 0xcd, 0xbd, 0x01, 0x4c, 0x30, 0x3e,
  0xc0, 0x0c, 0x14, 0x3d, 0x63, 0xf7, 0x5b, 0xbe, 0x6f, 0xf0, 0x88, 0xbd,
  0xbb, 0xcd, 0x90, 0xbd, 0x22, 0x3b, 0x07, 0x3e, 0x77, 0xc3, 0x29, 0x3e,
  0x46, 0x27, 0xb6, 0xbd, 0x28, 0x0b, 0xf8, 0xbd, 0x9f, 0x52, 0x84, 0x3d,
  0x48, 0x57, 0xb3, 0xbc, 0x8b, 0x50, 0x2b, 0xbe, 0xa2, 0xab, 0x88, 0x3c,
  0xd8, 0xf0, 0xd6, 0xbc, 0xbb, 0x82, 0x82, 0xbd, 0x28, 0x6c, 0x4d, 0x3e,
  0xde, 0x50, 0x7f, 0x3e, 0x57, 0xdb, 0x16, 0x3e, 0xb0, 0xc0, 0xdd, 0x3c,
  0x94, 0x99, 0x59, 0x3e, 0x91, 0x69, 0x63, 0x3d, 0x33, 0xa1, 0x68, 0x3e,
  0x68, 0x4a, 0x81, 0x3e, 0x72, 0xdb, 0xa9, 0x3d, 0x92, 0x7c, 0x24, 0x3d,
  0x84, 0x30, 0x56, 0xbe, 0x13, 0x35, 0x23, 0x3e, 0x49, 0x96, 0x1e, 0xbe,
  0xae, 0x74, 0x57, 0x3e, 0x61, 0x0a, 0xd0, 0x3c, 0xb0, 0x44, 0x88, 0x3d,
  0xae, 0x08, 0x0f, 0x3e, 0x9c, 0x95, 0x66, 0xbe, 0x52, 0x35, 0xf4, 0xbd,
  0x34, 0x2f, 0x3d, 0x3e, 0x51, 0x02, 0x64, 0xbe, 0x1b, 0x61, 0xd9, 0xbd,
  0x49, 0x57, 0xb5, 0x3d, 0x9d, 0x55, 0x27, 0x3e, 0x71, 0x50, 0x84, 0xbe,
  0xe3, 0x8f, 0x12, 0xbe, 0xe6, 0x02, 0x8d, 0x3e, 0x06, 0xa5, 0x43, 0x3e,
  0xbf, 0x37, 0x69, 0xbe, 0x80, 0x6a, 0x82, 0xbd, 0x4d, 0x70, 0x72, 0x3d,
  0xb4, 0xd4, 0x88, 0xbe, 0x30, 0x21, 0x82, 0x3d, 0x0d, 0xdd, 0x3c, 0x3d,
  0xae, 0xb3, 0x3a, 0x3c, 0x43, 0x45, 0x34, 0xbd, 0x5a, 0x9b, 0x21, 0xbe,
  0x0f, 0xd0, 0x24, 0xbd, 0xce, 0xdd, 0x96, 0xbd, 0x8c, 0x85, 0x75, 0x3e,
  0x4e, 0xb5, 0x2d, 0xbe, 0x71, 0x4a, 0xdd, 0x3d, 0xe7, 0x6f, 0x41, 0x3e,
  0x20, 0x22, 0xfd, 0xbd, 0x8b, 0x8c, 0xc3, 0x3d, 0x30, 0x4b, 0x26, 0xbe,
  0x8e, 0x31, 0xee, 0x3d, 0x40, 0x23, 0x86, 0xbe, 0x13, 0xb4, 0x70, 0xbe,
  0x07, 0x20, 0x9c, 0xbe, 0x2f, 0xee, 0x1a, 0xbe, 0x29, 0xb0, 0x85, 0xbe,
  0xdc, 0xcb, 0x36, 0xbe, 0xc0, 0x6a, 0xe6, 0xbc, 0x11, 0xfd, 0x45, 0x3e,
  0xa8, 0xbe, 0xf3, 0x3d, 0xce, 0x11, 0x25, 0x3e, 0x1a, 0x3d, 0xa0, 0xbd,
  0x7f, 0x4b, 0x9b, 0xbe, 0xd4, 0xa8, 0x3a, 0x3d, 0x93, 0xa9, 0x8e, 0xbe,
  0x26, 0xab, 0xab, 0x3c, 0x5f, 0x50, 0x30, 0xbe, 0x06, 0x6a, 0xef, 0x3d,
  0xd3, 0x50, 0x66, 0xbe, 0x87, 0x76, 0x3c, 0x3e, 0x8b, 0xbc, 0x69, 0x3e,
  0x65, 0x92, 0x1d, 0x3e, 0x15, 0xf3, 0x0a, 0x3e, 0x28, 0x67, 0x80, 0x3b,
  0x36, 0x15, 0x9b, 0xbc, 0x39, 0xa7, 0xe6, 0xbb, 0x19, 0x18, 0x2e, 0x3e,
  0x03, 0x6d, 0x6d, 0xbe, 0x33, 0xcf, 0xc8, 0xbd, 0xe8, 0x33, 0x5f, 0xbe,
  0x6b, 0xdd, 0x6d, 0xbe, 0x97, 0x62, 0xee, 0xbd, 0x9f, 0xca, 0x72, 0x3e,
  0xf1, 0xc4, 0xd7, 0x3d, 0x5f, 0x12, 0x82, 0x3e, 0x56, 0xeb, 0x1c, 0x3d,
  0xba, 0x64, 0x80, 0x3d, 0x8e, 0x22, 0x96, 0xbd, 0x19, 0x4e, 0x7c, 0xbe,
  0x04, 0x96, 0x81, 0x3e, 0x39, 0x98, 0x86, 0x3e, 0x6b, 0xdb, 0xd0, 0x3c,
  0x66, 0xcd, 0x7f, 0x3e, 0xd9, 0x4c, 0x09, 0xbe, 0xbc, 0x23, 0x13, 0xbe,
  0xa3, 0x59, 0x13, 0xbd, 0x59, 0xbd, 0xd4, 0x3c, 0x8f, 0x30, 0x04, 0xbe,
  0x19, 0xc2, 0x90, 0xbe, 0x86, 0xb9, 0x34, 0x3d, 0xcd, 0xf7, 0xaf, 0xbc,
  0x11, 0xe8, 0x98, 0x3e, 0x53, 0xfd, 0x7a, 0x3d, 0xbb, 0x43, 0x9a, 0x3e,
  0x20, 0x25, 0x9b, 0xbe, 0x74, 0x22, 0x39, 0x3e, 0x43, 0xfd, 0x87, 0xba,
  0x19, 0xc6, 0x80, 0xbc, 0x0f, 0xdd, 0x4a, 0xbe, 0x77, 0x61, 0xd0, 0xbd,
  0xa8, 0x98, 0x39, 0x3d, 0x4f, 0x41, 0xab, 0x3e, 0xdd, 0xc7, 0xa6, 0x3d,
  0x9d, 0x3d, 0x45, 0x3e, 0x28, 0xda, 0x78, 0x3e, 0xad, 0xb8, 0x97, 0x3d,
  0x77, 0x34, 0x11, 0xbe, 0xc8, 0xfc, 0xb2, 0xbd, 0xef, 0x02, 0x6f, 0xbd,
  0x9b, 0x58, 0xca, 0x3d, 0x91, 0x6e, 0x2b, 0x3e, 0xda, 0xd8, 0x09, 0xbd,
  0x1d, 0x8a, 0x6b, 0xbe, 0xe0, 0x87, 0x09, 0x3e, 0xcd, 0xb6, 0xb4, 0xbc,
  0x1b, 0x8f, 0x2d, 0xbe, 0xad, 0xbf, 0x17, 0x3e, 0xcd, 0x8f, 0x55, 0x3e,
  0x49, 0x7b, 0xd8, 0xbd, 0x2d, 0x50, 0x20, 0x3e, 0xd0, 0x69, 0xf0, 0x3d,
  0x2d, 0xc0, 0xf2, 0x3c, 0x07, 0x25, 0x2b, 0x3c, 0x87, 0xcb, 0xb0, 0xbe,
  0xaa, 0xff, 0x3b, 0xbe, 0xad, 0xb9, 0xc6, 0xbd, 0x9c, 0xa9, 0x46, 0x3d,
  0x41, 0xd7, 0xf9, 0x3d, 0xad, 0xab, 0x1f, 0xbe, 0xad, 0x38, 0xe3, 0x3d,
  0x24, 0x22, 0xf9, 0xbd, 0xf0, 0xf1, 0x59, 0x3e, 0x0c, 0x91, 0xca, 0xbd,
  0x1b, 0x75, 0x44, 0xbd, 0xaf, 0xd9, 0x04, 0xbd, 0x17, 0x35, 0x10, 0xbe,
  0x45, 0xb7, 0xf4, 0x3c, 0xe1, 0x03, 0x8c, 0x3e, 0xe3, 0xc2, 0x8a, 0xbe,
  0x26, 0xbf, 0x4c, 0xbe, 0x47, 0xcc, 0x7f, 0xbd, 0x53, 0x32, 0x50, 0x3e,
  0x3f, 0x77, 0x46, 0x3d, 0x34, 0x0c, 0xfe, 0x3d, 0x0c, 0xed, 0xd1, 0x3e,
  0xd0, 0x96, 0x47, 0xbd, 0x99, 0xe4, 0x24, 0x3e, 0xd1, 0x7a, 0x13, 0x3e,
  0x75, 0x80, 0xa6, 0xbe, 0x16, 0x4d, 0x5c, 0xbe, 0x18, 0x87, 0x59, 0xbe,
  0x09, 0xe9, 0x05, 0x3e, 0xf1, 0xad, 0xec, 0xbd, 0xe0, 0x68, 0xc1, 0xbd,
  0x2a, 0xe1, 0xd8, 0xbd, 0x09, 0x41, 0xd1, 0x3d, 0xc8, 0x1c, 0x98, 0x3e,
  0xa7, 0x2c, 0x45, 0x3d, 0x25, 0x13, 0x19, 0xbe, 0xd3, 0x7a, 0x63, 0xbe,
  0xbe, 0xf2, 0x86, 0xbd, 0xaa, 0xe6, 0x2f, 0xbe, 0xbf, 0x7a, 0x83, 0xbd,
  0x79, 0xee, 0x12, 0x3e, 0xc1, 0x4d, 0x8e, 0xbe, 0x21, 0xed, 0x58, 0xbe,
  0x1f, 0x46, 0x6e, 0x3e, 0x0c, 0x69, 0xe7, 0xbd, 0xd1, 0xb1, 0x1e, 0xbc,
  0xba, 0x9e, 0xf7, 0x3c, 0x29, 0x29, 0x5f, 0xbd, 0xa0, 0x0b, 0xb1, 0x3d,
  0xff, 0xfa, 0xe2, 0xbd, 0x66, 0xf4, 0xa3, 0xbd, 0xa4, 0xd9, 0x9e, 0xbe,
  0x21, 0x9d, 0x20, 0xbd, 0xb9, 0x64, 0x16, 0x3e, 0x66, 0x71, 0x67, 0xbe,
  0xa8, 0x20, 0x19, 0xbb, 0xd5, 0xab, 0xa1, 0x3e, 0x1a, 0x23, 0x7e, 0x3d,
  0xa7, 0x42, 0x9b, 0xbd, 0x7f, 0x13, 0x5a, 0x3e, 0xcb, 0x61, 0xf7, 0xbd,
  0x20, 0x9a, 0x3a, 0xbd, 0xbf, 0x59, 0x8b, 0x3e, 0x55, 0x66, 0x30, 0xbe,
  0xbc, 0x1e, 0x3e, 0x3c, 0x58, 0x21, 0x74, 0xbe, 0x12, 0xae, 0x83, 0xbe,
  0xb8, 0xea, 0x3e, 0xbd, 0xc1, 0x46, 0xed, 0xbe, 0x05, 0xba, 0x8e, 0xbe,
  0xfd, 0x11, 0xe2, 0x39, 0x9e, 0x9e, 0x6e, 0xbe, 0xb9, 0x9d, 0x28, 0xbe,
  0xa2, 0x7c, 0xc1, 0xbe, 0x6b, 0x5e, 0x06, 0x3e, 0xea, 0xa5, 0x75, 0x3e,
  0xc1, 0x8b, 0xdd, 0xbd, 0x0a, 0x08, 0xde, 0xbe, 0xeb, 0x94, 0x0b, 0xbd,
  0x32, 0xc8, 0x9f, 0xbb, 0x3b, 0x77, 0xa4, 0x3d, 0x78, 0xfe, 0x6b, 0x3d,
  0x39, 0x3b, 0xba, 0xbe, 0xda, 0x16, 0x85, 0x3d, 0x5b, 0xf9, 0x2d, 0xbd,
  0xa1, 0x08, 0x78, 0x3d, 0xa1, 0x89, 0xc0, 0xbd, 0xeb, 0x09, 0x2f, 0x3c,
  0x13, 0x30, 0x92, 0xbe, 0xd6, 0x34, 0x95, 0xbd, 0x48, 0xd5, 0x98, 0x3d,
  0x82, 0xf4, 0x61, 0xbc, 0x1b, 0x4f, 0xad, 0xbd, 0xaa, 0x2b, 0xa4, 0xbd,
  0x71, 0x17, 0x20, 0xbe, 0x7d, 0x69, 0x17, 0xbe, 0x25, 0x73, 0x4f, 0xbe,
  0x78, 0xed, 0xa8, 0x3b, 0x43, 0xb3, 0x33, 0x3e, 0xcc, 0x73, 0x82, 0xbe,
  0xe9, 0x7c, 0xdd, 0x3d, 0x3f, 0x3d, 0x3e, 0x3d, 0x86, 0xa5, 0xcd, 0xbe,
  0x15, 0x7b, 0xa9, 0xbe, 0x5b, 0x69, 0x9f, 0xbe, 0x68, 0x32, 0x92, 0xbe,
  0xc2, 0x4c, 0x54, 0xbd, 0xb0, 0x9e, 0x10, 0x3e, 0x1f, 0xb7, 0x98, 0xbc,
  0xe8, 0xe7, 0x28, 0x3e, 0x58, 0xb9, 0xe0, 0xbc, 0x0d, 0x43, 0x8e, 0xbe,
  0x05, 0x18, 0x53, 0xbe, 0x9f, 0xf7, 0x39, 0xbe, 0xce, 0x1a, 0xf0, 0x3d,
  0x6c, 0xa3, 0x50, 0xbe, 0x03, 0xec, 0x55, 0xbe, 0xdc, 0x37, 0x51, 0x3e,
  0x30, 0xa5, 0x15, 0x3e, 0x0a, 0xb7, 0x81, 0xbc, 0x28, 0x74, 0x8e, 0x3e,
  0x55, 0xcf, 0x89, 0xbe, 0x36, 0xb4, 0x12, 0x3e, 0x5c, 0xfe, 0xe9, 0x3d,
  0xc3, 0x89, 0x7c, 0xbe, 0xbd, 0xe1, 0x09, 0x3e, 0x7c, 0xee, 0x12, 0xbd,
  0x95, 0xaf, 0x5c, 0xbc, 0x8b, 0xbd, 0x54, 0x3d, 0x22, 0xc0, 0xd5, 0x3d,
  0x11, 0xf7, 0x10, 0x3e, 0xf0, 0x8a, 0x95, 0x3e, 0x63, 0x36, 0x73, 0x3d,
  0xf5, 0xf8, 0x3f, 0x3e, 0x7f, 0x71, 0x3c, 0x3e, 0x80, 0x97, 0xc7, 0xbd,
  0xe9, 0x04, 0xb5, 0xbd, 0x79, 0xda, 0xe7, 0x3e, 0xea, 0x40, 0x39, 0xbd,
  0x00, 0x93, 0x4f, 0xbe, 0x7f, 0xbe, 0x19, 0x3d, 0x57, 0xc8, 0xe0, 0xbe,
  0xc2, 0x48, 0x31, 0xbd, 0x82, 0xee, 0x0b, 0xbe, 0xae, 0xa5, 0x25, 0xbe,
  0x64, 0x28, 0x75, 0xbe, 0x79, 0x36, 0xf2, 0x3d, 0xe6, 0x10, 0x6e, 0xbd,
  0x0f, 0x30, 0x56, 0x3e, 0x24, 0x46, 0x40, 0x3d, 0x3b, 0x3b, 0xaa, 0xbc,
  0xdd, 0x10, 0x1b, 0xbe, 0x9a, 0x3c, 0xa2, 0xbd, 0x1e, 0xaf, 0x79, 0xbe,
  0xe1, 0xbf, 0x27, 0x3d, 0x71, 0x81, 0x15, 0x3d, 0xbc, 0x85, 0x48, 0xbd,
  0x6f, 0x75, 0x78, 0xbd, 0x04, 0xc2, 0x07, 0xbe, 0x02, 0xab, 0x37, 0xbe,
  0x14, 0xd3, 0x4d, 0x3e, 0x6a, 0x16, 0x47, 0xbc, 0x27, 0xce, 0xf8, 0x3d,
  0x19, 0x8a, 0x60, 0x3e, 0x85, 0x4d, 0x1c, 0xbe, 0x12, 0xd8, 0x62, 0x3e,
  0x17, 0xf6, 0xdf, 0xbc, 0x25, 0x92, 0x25, 0xbe, 0x66, 0x53, 0x32, 0x3e,
  0x63, 0xe3, 0x37, 0xbe, 0xfa, 0x57, 0xdc, 0x3d, 0xd0, 0xb2, 0x1f, 0xbe,
  0xe2, 0x5f, 0x84, 0x3e, 0x56, 0xc7, 0xcb, 0x3d, 0x45, 0x9d, 0x9b, 0xbe,
  0xbf, 0x8c, 0x38, 0x3e, 0x02, 0xa8, 0x3a, 0xbe, 0xcf, 0x4e, 0x25, 0xbe,
  0xf9, 0xb3, 0xbf, 0xbe, 0xfa, 0x01, 0x42, 0xbe, 0x8b, 0x72, 0xaa, 0xbe,
  0xfe, 0xf5, 0xa1, 0xbd, 0xe2, 0x02, 0x0f, 0xbe, 0x42, 0x06, 0xb9, 0x3d,
  0xdb, 0x6b, 0xb2, 0x3e, 0xe8, 0x6d, 0x10, 0x3d, 0x64, 0x8f, 0x1d, 0x3e,
  0x79, 0x14, 0x6b, 0x3d, 0x73, 0x97, 0x83, 0x3e, 0x95, 0x4d, 0x7c, 0xbe,
  0xf4, 0x4c, 0x35, 0xbe, 0x65, 0x3c, 0x09, 0x3d, 0x90, 0xbe, 0x51, 0xbd,
  0x54, 0xc9, 0x52, 0x3e, 0x2a, 0x57, 0xa1, 0xbd, 0x97, 0x8f, 0xc3, 0x3d,
  0xf9, 0x57, 0x36, 0x3e, 0x48, 0x71, 0xa3, 0x3c, 0x0f, 0x21, 0xf1, 0x3c,
  0x8b, 0xc3, 0xcc, 0x3e, 0xd3, 0x14, 0xf2, 0x3d, 0x54, 0xde, 0x1f, 0x3d,
  0xe9, 0x12, 0x9a, 0xbd, 0xed, 0xec, 0x3d, 0x3e, 0x1b, 0xf1, 0xa2, 0xbe,
  0xfa, 0xb2, 0x6f, 0xbe, 0x92, 0x38, 0xfa, 0xbd, 0x25, 0x2b, 0x89, 0xbd,
  0x94, 0x02, 0x13, 0xbe, 0xfc, 0x47, 0x4b, 0xbe, 0x37, 0x46, 0x1c, 0xbc,
  0xd9, 0xdf, 0x5b, 0xbe, 0xa5, 0x1a, 0x6a, 0x3d, 0x5b, 0xaa, 0x99, 0x3e,
  0x53, 0x11, 0xaa, 0xba, 0xba, 0x0d, 0x6f, 0xbe, 0x96, 0x13, 0x1d, 0xbd,
  0x84, 0x2f, 0x94, 0xbd, 0x4a, 0xb0, 0xa3, 0xbe, 0xdc, 0xc7, 0xcb, 0xbe,
  0x9b, 0xc6, 0x82, 0xbe, 0x7d, 0x3f, 0xc7, 0xbe, 0x3c, 0x8a, 0xf1, 0x3d,
  0x6e, 0xb5, 0x29, 0xbe, 0x0f, 0xb4, 0x8b, 0xbd, 0x64, 0x0b, 0x6a, 0x3d,
  0xca, 0xa9, 0x9f, 0xbd, 0x63, 0x89, 0x3d, 0x3e, 0x6d, 0x43, 0xfe, 0xbd,
  0x47, 0x22, 0x93, 0x3e, 0x0b, 0xd5, 0x15, 0xbc, 0x8b, 0x75, 0xed, 0xbe,
  0x2c, 0xd8, 0xda, 0xbd, 0x0c, 0x13, 0x71, 0xbe, 0xb9, 0xcf, 0x97, 0xbe,
  0x7c, 0xaa, 0x86, 0xbe, 0xc8, 0x04, 0x53, 0xbe, 0x9e, 0x21, 0x1c, 0x3c,
  0xee, 0xb0, 0x82, 0x3e, 0x28, 0xa3, 0x61, 0x3e, 0x29, 0x5b, 0xf2, 0x3e,
  0x8f, 0x49, 0x3d, 0x3e, 0x01, 0xd4, 0x89, 0x3e, 0x8b, 0xea, 0x34, 0x3e,
  0x11, 0xda, 0x15, 0xbe, 0xdf, 0x99, 0xbe, 0xbe, 0x2d, 0x2b, 0x81, 0xbe,
  0xe2, 0xb1, 0x89, 0xbe, 0xd2, 0x45, 0xad, 0xbe, 0xc2, 0x1b, 0x9b, 0xbe,
  0xa3, 0x00, 0x45, 0xbc, 0xb3, 0xb9, 0x57, 0x3e, 0x60, 0x38, 0xcf, 0x3d,
  0x2a, 0xc8, 0xcd, 0x3d, 0x71, 0x1f, 0xc9, 0x3d, 0x64, 0x85, 0x43, 0x3d,
  0x16, 0x51, 0x36, 0x3c, 0x98, 0x37, 0xbe, 0x3e, 0xad, 0x63, 0x23, 0xbc,
  0xb0, 0xb0, 0x13, 0xbe, 0x6f, 0x18, 0xec, 0xbd, 0x64, 0xca, 0xb8, 0xbe,
  0x48, 0x31, 0x07, 0x3e, 0x2f, 0xc7, 0x23, 0xbe, 0x35, 0xf3, 0x0e, 0xbe,
  0x79, 0x96, 0xc1, 0x3d, 0xed, 0xf7, 0xfb, 0x3d, 0xda, 0x29, 0x1e, 0x3d,
  0x66, 0x16, 0xa0, 0x3e, 0x59, 0x23, 0xea, 0xbd, 0x66, 0x20, 0xb6, 0x3c,
  0x17, 0x88, 0xaa, 0xbe, 0xe6, 0x6b, 0x5d, 0xbd, 0x82, 0x93, 0x92, 0xbe,
  0xa7, 0x15, 0xb4, 0x3d, 0x5b, 0x8c, 0xba, 0xbd, 0x8f, 0x19, 0xfd, 0xbd,
  0x86, 0xd8, 0x36, 0x3e, 0x06, 0xe4, 0x32, 0xbd, 0x9f, 0xf4, 0x91, 0xbd,
  0x7c, 0x72, 0xbc, 0x3b, 0xa6, 0x1a, 0x2d, 0xbe, 0xdb, 0x61, 0xe4, 0xbd,
  0x94, 0x1d, 0xc9, 0x3d, 0x9a, 0xa6, 0xec, 0x3d, 0xf0, 0xdc, 0x8f, 0x3e,
  0x6d, 0xc3, 0x0f, 0xbe, 0xaf, 0xa1, 0x87, 0xbe, 0xfb, 0xfa, 0x2f, 0xbe,
  0xb6, 0x3d, 0x70, 0xbc, 0x68, 0x50, 0x91, 0x3d, 0x62, 0x71, 0x8c, 0x3c,
  0xb7, 0xef, 0x63, 0x3e, 0xde, 0x9a, 0x53, 0x3d, 0x44, 0x70, 0x01, 0x3e,
  0xa9, 0x03, 0x1e, 0xbe, 0x95, 0xf0, 0xea, 0xbc, 0x45, 0x94, 0x2a, 0x3e,
  0xb6, 0x26, 0xa6, 0x3d, 0x8f, 0x22, 0x9e, 0xbe, 0x3d, 0x7f, 0x8f, 0xbe,
  0xdb, 0xeb, 0x03, 0x3e, 0x29, 0x9c, 0x77, 0xbc, 0x78, 0x4d, 0x2f, 0xbe,
  0xd5, 0xd2, 0x74, 0xbd, 0x1d, 0xc4, 0x9a, 0x3e, 0x73, 0x47, 0x0d, 0xbe,
  0xf9, 0xd9, 0x75, 0x3c, 0xc4, 0xb7, 0x1f, 0xbe, 0x27, 0x0b, 0x1c, 0x3e,
  0x90, 0x8e, 0x22, 0x3e, 0xe4, 0x8a, 0xe4, 0xbd, 0x8d, 0xb4, 0xc9, 0xbd,
  0x02, 0x4d, 0x0f, 0xbe, 0xea, 0x75, 0x31, 0xbe, 0x61, 0xb3, 0x65, 0x3e,
  0x55, 0x94, 0xf8, 0xbc, 0xc1, 0xf2, 0x67, 0xbd, 0xb9, 0xad, 0x83, 0xbe,
  0xcd, 0x96, 0x2d, 0x3d, 0x82, 0xfa, 0x57, 0xbe, 0xd3, 0xae, 0x62, 0xbe,
  0xeb, 0xec, 0x80, 0xbe, 0xdb, 0xeb, 0x51, 0x3c, 0x8f, 0x6b, 0x32, 0x3e,
  0xef, 0xa8, 0x1d, 0x3a, 0x4b, 0xfa, 0x7f, 0x3e, 0x06, 0x32, 0x3d, 0x3d,
  0x00, 0x34, 0x22, 0x3e, 0x89, 0x6c, 0x27, 0x3e, 0xf3, 0x7f, 0x85, 0x3e,
  0x56, 0x27, 0x46, 0xbc, 0x77, 0xe7, 0x01, 0x3e, 0x08, 0x54, 0x2e, 0x3e,
  0x68, 0x4c, 0xb5, 0xbd, 0x97, 0x1d, 0x65, 0x3c, 0xc7, 0x52, 0x8c, 0x3d,
  0x2c, 0x82, 0x8d, 0x3d, 0x89, 0x63, 0x3b, 0x3e, 0x2d, 0x3a, 0x82, 0x3d,
  0xe2, 0x79, 0x62, 0x3d, 0xa3, 0x7d, 0x1b, 0xbe, 0xa2, 0x68, 0xf2, 0xbd,
  0x10, 0xaf, 0x19, 0x3e, 0x7e, 0xae, 0x70, 0xbe, 0x5a, 0xde, 0x78, 0xbe,
  0x98, 0xb4, 0x3d, 0x3e, 0xf9, 0x47, 0xe2, 0x3c, 0xdd, 0x41, 0x80, 0x3e,
  0x03, 0xd9, 0x16, 0xbe, 0xb3, 0xf5, 0x33, 0xbe, 0x87, 0x8c, 0x8e, 0xbd,
  0x5a, 0xc1, 0x31, 0x3e, 0x33, 0x7f, 0x17, 0xbe, 0x60, 0xdc, 0x36, 0xbe,
  0x53, 0xb7, 0x64, 0x3e, 0x58, 0x08, 0x6a, 0x3e, 0x4e, 0x0a, 0x28, 0xbe,
  0x51, 0x30, 0x79, 0xbe, 0x37, 0xe5, 0x20, 0xbe, 0x78, 0xf7, 0x10, 0x3e,
  0xd1, 0x40, 0x47, 0xbe, 0xc3, 0x60, 0x9a, 0x3e, 0x30, 0xdd, 0x3d, 0xbc,
  0x3d, 0x42, 0x29, 0xbe, 0x6a, 0x5f, 0x2d, 0xbe, 0x81, 0xa8, 0x57, 0xbe,
  0xef, 0xfa, 0x41, 0xbd, 0x8e, 0xc6, 0x8c, 0x3e, 0xb6, 0x00, 0xc6, 0xbb,
  0x60, 0x10, 0x19, 0xbe, 0x51, 0xa0, 0xd0, 0x3d, 0x72, 0x96, 0x0c, 0xbe,
  0xab, 0xcb, 0xc6, 0x3d, 0x51, 0xe5, 0x88, 0x3e, 0x28, 0x48, 0xa9, 0xbc,
  0xc8, 0x18, 0x46, 0xbe, 0x19, 0x06, 0x1c, 0x3d, 0x9c, 0x38, 0xcf, 0x3d,
  0x69, 0x9c, 0x97, 0x3e, 0x6f, 0x89, 0x23, 0x3d, 0x88, 0xa7, 0xb2, 0x3e,
  0x63, 0xf4, 0x3f, 0x3e, 0xc0, 0xa3, 0x1f, 0xbd, 0x26, 0xe5, 0x5f, 0xbd,
  0x46, 0x0d, 0x6d, 0x3e, 0xad, 0xa4, 0x7b, 0x3c, 0xee, 0xc0, 0x95, 0x3d,
  0x11, 0x62, 0xcf, 0x3d, 0xd9, 0x9f, 0x21, 0xbd, 0x26, 0x1c, 0x97, 0x3e,
  0x35, 0x88, 0x18, 0xbe, 0x33, 0xa4, 0x66, 0xbc, 0x80, 0x7b, 0x73, 0xbe,
  0xa5, 0x9e, 0x8a, 0xbe, 0xa4, 0xd9, 0xd6, 0x3d, 0x5c, 0xe9, 0x1f, 0x3e,
  0x81, 0xa4, 0x83, 0x3d, 0xc7, 0xcd, 0x35, 0xbe, 0x2e, 0x95, 0x13, 0xbe,
  0x45, 0xf0, 0x43, 0x3e, 0x69, 0xd7, 0x2d, 0xbb, 0xd9, 0x4c, 0x34, 0x3d,
  0xc1, 0x15, 0x1f, 0xbe, 0xb1, 0x9e, 0x97, 0x3e, 0xd5, 0x83, 0x97, 0x3e,
  0xa1, 0xa7, 0x99, 0x3e, 0xb7, 0x79, 0xa9, 0x3c, 0x5f, 0xea, 0xe4, 0xbd,
  0x49, 0xeb, 0x05, 0xbe, 0x3c, 0xe8, 0x15, 0x3d, 0x89, 0x74, 0x0a, 0x3e,
  0x9c, 0x0e, 0x45, 0xbe, 0x66, 0x7a, 0x09, 0x3e, 0xa2, 0xc7, 0x12, 0x3e,
  0x07, 0xe8, 0x63, 0xbb, 0xad, 0x89, 0x62, 0x3e, 0xe5, 0xa0, 0x36, 0xbe,
  0xeb, 0x73, 0x2f, 0xbe, 0x35, 0xc2, 0x5c, 0x3e, 0x9e, 0x19, 0xaa, 0x3d,
  0x45, 0x11, 0x19, 0xbe, 0xe0, 0x7a, 0x89, 0xbd, 0xa9, 0x0d, 0xa2, 0xbd,
  0x60, 0x09, 0x0b, 0x3e, 0x0e, 0xb3, 0xad, 0x3d, 0x87, 0x7f, 0xd3, 0x3d,
  0x60, 0x69, 0x03, 0x3e, 0x9d, 0x99, 0x7a, 0xbe, 0xaf, 0x77, 0xa0, 0x3d,
  0x4e, 0x98, 0x70, 0xbd, 0xe0, 0xb4, 0x6b, 0xbe, 0xfb, 0xac, 0x40, 0x3e,
  0x8e, 0x13, 0x29, 0xbe, 0x9c, 0x61, 0x98, 0x3e, 0xb8, 0x13, 0xdf, 0x3e,
  0xa7, 0x18, 0x71, 0xbd, 0x80, 0x9b, 0xc5, 0x3d, 0xd5, 0x09, 0x5d, 0x3e,
  0xdb, 0x54, 0xf1, 0x3d, 0xf3, 0x6d, 0xf5, 0xbd, 0xe0, 0xa4, 0x07, 0x3e,
  0xfd, 0x87, 0x4e, 0x3e, 0xa1, 0xde, 0x18, 0x3d, 0xa4, 0x08, 0x30, 0x3e,
  0xf9, 0x57, 0x55, 0x3d, 0x5a, 0xed, 0x97, 0x3e, 0x77, 0x23, 0x71, 0xbe,
  0x7f, 0xc7, 0x6e, 0xbe, 0xca, 0xa1, 0x50, 0xbd, 0xf9, 0xb5, 0x9b, 0xbd,
  0x45, 0x83, 0x8b, 0x3d, 0xe5, 0x86, 0x0e, 0x3e, 0x77, 0x94, 0x2a, 0xbe,
  0x47, 0xb9, 0x33, 0xbe, 0x7d, 0x78, 0x39, 0x3e, 0x6d, 0x79, 0xc9, 0xbd,
  0xce, 0xd2, 0x0f, 0xbe, 0xac, 0xad, 0xd2, 0xbc, 0xfa, 0xf6, 0x4f, 0x3e,
  0x03, 0x99, 0x76, 0x3e, 0xe9, 0xc4, 0x62, 0xbd, 0xb3, 0x0f, 0x48, 0x3e,
  0xca, 0x86, 0x16, 0x3e, 0x4a, 0x27, 0xb4, 0xbd, 0x01, 0xa6, 0x5e, 0xbe,
  0xf7, 0x9c, 0x82, 0xbe, 0x54, 0x08, 0x0f, 0xbe, 0x02, 0x00, 0xcb, 0x3d,
  0xbf, 0xec, 0xef, 0xbc, 0x8d, 0xce, 0x28, 0x3d, 0xa5, 0x67, 0x0e, 0xbe,
  0x5e, 0xf3, 0xc0, 0x3c, 0x0f, 0x08, 0xc5, 0xbd, 0x73, 0x80, 0x9b, 0x3e,
  0x06, 0xe4, 0xff, 0xbd, 0x12, 0x71, 0xc1, 0xbd, 0xd8, 0x93, 0x45, 0xbd,
  0xa8, 0x6f, 0x0a, 0x3e, 0x87, 0x94, 0xc5, 0x3d, 0x01, 0x26, 0x7b, 0xbd,
  0x1b, 0xf7, 0x04, 0xbe, 0x21, 0x76, 0xfd, 0xbd, 0xe4, 0x60, 0xf0, 0xbd,
  0xdd, 0xde, 0x3d, 0x3e, 0x89, 0x3a, 0x2f, 0xbd, 0x0d, 0xe7, 0x77, 0x3e,
  0x97, 0x5e, 0x81, 0x3d, 0x57, 0xaa, 0x6b, 0x3e, 0xc3, 0x15, 0x79, 0x3d,
  0xea, 0x01, 0x50, 0xbe, 0x9e, 0x7f, 0x93, 0x3c, 0x06, 0xe9, 0x21, 0x3e,
  0xb4, 0x14, 0x96, 0x3d, 0xc0, 0x44, 0x39, 0x3c, 0x11, 0xce, 0xea, 0xbd,
  0x76, 0x1d, 0xa3, 0x3c, 0x5a, 0x34, 0xe7, 0xbd, 0xc1, 0x40, 0x0f, 0xbd,
  0x4a, 0xfd, 0x7a, 0x3e, 0x49, 0x3f, 0x42, 0x3d, 0xd6, 0x74, 0xe0, 0xbd,
  0xc3, 0x9f, 0x00, 0x3e, 0xef, 0xe9, 0x33, 0xbe, 0xd5, 0xcf, 0x24, 0x3d,
  0x7a, 0x88, 0x30, 0x3e, 0x6e, 0x93, 0x5b, 0x3e, 0x79, 0x19, 0x31, 0x3e,
  0x11, 0xe6, 0xbd, 0x3e, 0x22, 0xaf, 0xc4, 0xbd, 0x1d, 0xd9, 0x1a, 0x3e,
  0x67, 0x9c, 0x17, 0x3d, 0x44, 0x2b, 0xc6, 0xbd, 0x19, 0x9a, 0x57, 0xbd,
  0xd5, 0xcb, 0x17, 0xbe, 0x5d, 0x48, 0x7e, 0x3e, 0x38, 0xcc, 0x6c, 0x3e,
  0xa0, 0x62, 0x22, 0xbe, 0x7c, 0xd5, 0x4c, 0x3e, 0x8b, 0xa4, 0x55, 0x3e,
  0x70, 0xf2, 0x2a, 0xbe, 0xf0, 0x94, 0x35, 0x3e, 0x66, 0xfb, 0x5c, 0xbd,
  0x67, 0x3f, 0x77, 0x3e, 0x5b, 0xad, 0x3b, 0x3d, 0x97, 0xf9, 0x0b, 0x3c,
  0x75, 0x98, 0x63, 0x3d, 0x71, 0xff, 0xa8, 0x3e, 0xe2, 0xbd, 0x50, 0xbe,
  0xcd, 0x03, 0x37, 0xbb, 0xf7, 0x2d, 0x7f, 0xbe, 0x6a, 0x46, 0x65, 0x3d,
  0x9d, 0xe9, 0x5e, 0x3e, 0x61, 0x60, 0x6b, 0xbd, 0x98, 0x49, 0x52, 0xbd,
  0xdc, 0xd4, 0xaa, 0x3d, 0x38, 0xe2, 0x91, 0x3e, 0x7f, 0xc4, 0x9c, 0x3e,
  0x00, 0x0a, 0x8e, 0x3e, 0x03, 0x58, 0xda, 0xbc, 0xe4, 0x9a, 0x7d, 0x3e,
  0x69, 0xfd, 0x62, 0xbe, 0x56, 0x4f, 0x86, 0x3e, 0xee, 0x24, 0xa9, 0xbd,
  0x22, 0x38, 0x86, 0xbe, 0x52, 0xd3, 0x38, 0x3e, 0x33, 0x7c, 0x5f, 0xbe,
  0x87, 0x64, 0xd3, 0x3d, 0x3f, 0x08, 0x23, 0x3e, 0xf0, 0xbe, 0x17, 0x3d,
  0x5b, 0x79, 0xae, 0x3e, 0x3d, 0xff, 0x98, 0x3b, 0x1b, 0x91, 0x0e, 0xbe,
  0xb1, 0xdf, 0xbc, 0x3d, 0xfc, 0x28, 0xc5, 0xbd, 0xcc, 0x3d, 0x02, 0xbe,
  0x4b, 0xb6, 0x96, 0xbc, 0xdb, 0xc4, 0x5a, 0x3d, 0x69, 0x10, 0x05, 0xbe,
  0xb9, 0xef, 0x12, 0x3e, 0x23, 0x66, 0xe6, 0xbb, 0xdf, 0x37, 0xff, 0xbd,
  0x61, 0xde, 0x06, 0x3e, 0x5f, 0xec, 0xf1, 0x3d, 0x27, 0xfd, 0x70, 0xbe,
  0xc6, 0xad, 0x7e, 0xbd, 0x8a, 0x1e, 0x04, 0xbe, 0x82, 0x47, 0x1d, 0xbe,
  0x32, 0x79, 0x11, 0xbe, 0x10, 0x0d, 0x14, 0xbd, 0x6d, 0x52, 0x34, 0xbe,
  0x4a, 0x6a, 0x83, 0xbe, 0x8d, 0x94, 0x4b, 0x3e, 0x3f, 0x26, 0x03, 0x3e,
  0xc3, 0x29, 0xcc, 0x3c, 0xf5, 0x2b, 0x99, 0x3e, 0xe2, 0xc1, 0x6b, 0xbe,
  0xd0, 0x05, 0x11, 0xbd, 0xa5, 0x24, 0xc1, 0x3d, 0xf4, 0x36, 0xe7, 0x3d,
  0xff, 0x7f, 0xce, 0xbd, 0xac, 0xdf, 0x2e, 0x3e, 0xc4, 0x50, 0x86, 0x3e,
  0xef, 0xed, 0x72, 0x3e, 0xaf, 0x30, 0x4f, 0xbe, 0xc3, 0x1d, 0x41, 0xbe,
  0xe7, 0xc9, 0x40, 0x3e, 0x9f, 0x5a, 0x01, 0xbe, 0xe3, 0x04, 0x39, 0x3e,
  0xed, 0x67, 0x36, 0xbe, 0xcb, 0x7a, 0x7b, 0x3e, 0xb4, 0x5a, 0x36, 0xbe,
  0xc5, 0xf9, 0xa9, 0x3e, 0x7b, 0xa0, 0x62, 0xbd, 0x6d, 0x10, 0xc7, 0xbd,
  0x64, 0xf5, 0x1f, 0x3e, 0xd7, 0x79, 0xb1, 0xbe, 0xb9, 0xcf, 0xa9, 0xbe,
  0x9a, 0x4c, 0x84, 0x3d, 0x5d, 0x0b, 0x57, 0xbe, 0x19, 0x0a, 0x5e, 0x3e,
  0x01, 0x5a, 0x1e, 0xbe, 0x05, 0x4b, 0xfe, 0x3d, 0x20, 0xdb, 0xff, 0x3a,
  0xeb, 0xd3, 0x6a, 0xbe, 0x39, 0x9f, 0x50, 0x3e, 0x90, 0x4c, 0x13, 0x3e,
  0xfd, 0x35, 0xef, 0xbc, 0xde, 0x96, 0x68, 0x3d, 0x17, 0x82, 0x5f, 0xbe,
  0x0e, 0x6d, 0xa1, 0xba, 0xb9, 0x0d, 0xe5, 0xbd, 0x38, 0x94, 0x94, 0x3d,
  0xb3, 0x9b, 0x5a, 0xbe, 0xf7, 0x5e, 0x33, 0x3c, 0x32, 0x2d, 0x0a, 0xbd,
  0x24, 0x36, 0x4c, 0xbd, 0xed, 0x35, 0x35, 0xbe, 0x07, 0xda, 0x1a, 0xbd,
  0xb6, 0x73, 0xe0, 0xbd, 0x46, 0x20, 0xee, 0x3d, 0xf8, 0x21, 0x97, 0xbe,
  0x5d, 0xd8, 0x55, 0xbe, 0xfd, 0x90, 0xe3, 0xbe, 0x22, 0x9b, 0x54, 0xbe,
  0x14, 0x5d, 0x43, 0x3e, 0x8a, 0xe9, 0x73, 0x3d, 0x1d, 0x30, 0x0e, 0xbe,
  0x9c, 0xf8, 0x88, 0x3e, 0xb5, 0x64, 0x0c, 0x3d, 0x48, 0xd0, 0x7f, 0xbd,
  0x0a, 0x58, 0x30, 0x3e, 0x59, 0x8a, 0xbf, 0xbd, 0x07, 0xff, 0x90, 0xbe,
  0x42, 0xe1, 0x22, 0x3e, 0xec, 0x43, 0x9b, 0x3e, 0xa6, 0xf3, 0x2b, 0x3e,
  0x77, 0xe9, 0xbf, 0xbd, 0xbd, 0x1d, 0xec, 0xbd, 0xa1, 0x09, 0x48, 0x3e,
  0x67, 0x28, 0x73, 0xbe, 0xe4, 0x5e, 0xaf, 0x3d, 0xe3, 0x53, 0x39, 0xbe,
  0x77, 0x74, 0x20, 0x3e, 0xef, 0x92, 0x21, 0x3e, 0x4b, 0xd5, 0x48, 0x3e,
  0xc7, 0x5e, 0x8e, 0xbe, 0xa6, 0x15, 0x9b, 0x3c, 0x2b, 0x07, 0x0b, 0x3e,
  0x2b, 0xcd, 0x19, 0xbe, 0x88, 0x80, 0x9b, 0xbe, 0x74, 0x5d, 0xb3, 0x3e,
  0x9e, 0x32, 0x8e, 0x3e, 0x2a, 0x88, 0x91, 0x3d, 0x48, 0x17, 0x79, 0xbd,
  0x6d, 0x2b, 0x8e, 0x3e, 0x11, 0x46, 0x8f, 0x3d, 0xfc, 0xc1, 0x90, 0xbb,
  0x11, 0xfc, 0x8c, 0x3c, 0x0b, 0xeb, 0xdc, 0xbe, 0x2b, 0x98, 0x2d, 0xbe,
  0x65, 0x7b, 0x3d, 0x3e, 0x4b, 0x36, 0x19, 0x3e, 0xe5, 0x73, 0xdc, 0x3b,
  0x56, 0xd4, 0x83, 0x3e, 0xb3, 0x37, 0xa4, 0x3d, 0xde, 0xfb, 0x84, 0x3d,
  0xb9, 0x0c, 0x83, 0x3e, 0x2f, 0xda, 0x8f, 0x3d, 0xd4, 0xb1, 0x14, 0xbe,
  0x83, 0x62, 0x05, 0x3e, 0x77, 0x18, 0xfe, 0x3d, 0x54, 0x2f, 0x86, 0x3d,
  0xa4, 0x88, 0xec, 0xbd, 0x03, 0x34, 0x81, 0x3d, 0x2d, 0x8a, 0x31, 0x3d,
  0x46, 0xbb, 0xa9, 0xbd, 0x64, 0xae, 0x0c, 0xbe, 0xbf, 0x39, 0xc8, 0x3d,
  0x86, 0xd9, 0xa3, 0xbe, 0x45, 0x63, 0x4b, 0x3e, 0x59, 0x3c, 0x89, 0xbe,
  0x2c, 0x25, 0x42, 0xbd, 0x52, 0x02, 0x1a, 0xbe, 0x28, 0xc7, 0xd1, 0xbd,
  0x11, 0x5a, 0xbc, 0xbb, 0xc5, 0xb8, 0x64, 0x3d, 0x42, 0x23, 0xb7, 0xbe,
  0x8b, 0x77, 0xa9, 0x3e, 0x0d, 0x0d, 0x82, 0xbd, 0x26, 0x87, 0x3c, 0x3b,
  0x02, 0x99, 0xbc, 0xbd, 0x57, 0xec, 0xca, 0xbc, 0x29, 0xad, 0x8e, 0x3e,
  0x9d, 0x43, 0x09, 0x3e, 0x65, 0x32, 0xa7, 0x3e, 0xc0, 0xc1, 0xb1, 0xbd,
  0x37, 0xe3, 0xfd, 0xbd, 0x4c, 0x77, 0x8a, 0xbc, 0xc8, 0x91, 0x40, 0x3e,
  0xb6, 0x13, 0x2e, 0x3e, 0xe0, 0x83, 0xc7, 0x3d, 0x2b, 0x39, 0x64, 0x3e,
  0x9f, 0x5e, 0x0d, 0x3e, 0xd9, 0x49, 0xbb, 0xbc, 0xbc, 0x40, 0xdc, 0x3d,
  0xd6, 0x2f, 0x4c, 0xbd, 0xe7, 0x99, 0xd2, 0x3e, 0x43, 0x1e, 0xcd, 0xbd,
  0x2a, 0xc4, 0x0c, 0xbe, 0x2a, 0xad, 0x68, 0xbd, 0x06, 0x92, 0x1c, 0x3e,
  0xa0, 0x36, 0xb1, 0x3e, 0x49, 0x0d, 0x67, 0xbd, 0xb1, 0x4c, 0x8e, 0xbc,
  0x2b, 0x2e, 0x83, 0x3e, 0xa0, 0xbe, 0x83, 0xbd, 0x09, 0xd4, 0xbc, 0x3d,
  0xd8, 0xc0, 0x18, 0x3e, 0x85, 0x09, 0x8b, 0x3e, 0x31, 0x70, 0x25, 0x3e,
  0x77, 0x4b, 0x40, 0xbd, 0x36, 0x6e, 0x6e, 0x3e, 0xf1, 0x91, 0x3f, 0xbe,
  0x3e, 0x5a, 0x49, 0x3e, 0x56, 0x44, 0x9a, 0x3d, 0x09, 0xfa, 0x45, 0x3e,
  0x44, 0xf9, 0x69, 0xbe, 0x39, 0xfb, 0x8f, 0xbd, 0x97, 0xe2, 0x92, 0x3e,
  0x98, 0x8d, 0xde, 0x3e, 0xe2, 0x3e, 0x4e, 0x3e, 0x65, 0x35, 0x63, 0x3e,
  0x88, 0xfc, 0x83, 0x3d, 0xce, 0xcb, 0xcb, 0xbb, 0x59, 0xdf, 0x2e, 0x3d,
  0x12, 0x2d, 0x08, 0xbe, 0x63, 0x16, 0x72, 0xbe, 0xd0, 0x46, 0x86, 0xbe,
  0x88, 0x22, 0x26, 0xbb, 0xc3, 0xdf, 0xa6, 0xbe, 0x6e, 0x05, 0x62, 0x3d,
  0xc1, 0x05, 0xf9, 0x3d, 0x8c, 0xfa, 0xba, 0x3d, 0x9b, 0x0a, 0x48, 0x3e,
  0xa7, 0x72, 0x2d, 0xbe, 0x35, 0xbb, 0xd0, 0x3d, 0x8c, 0xd6, 0x1c, 0xbe,
  0xad, 0x1f, 0xbd, 0xbc, 0x77, 0x25, 0xf8, 0x3d, 0x9f, 0x4c, 0xfa, 0x3d,
  0x62, 0xf4, 0x3e, 0x3e, 0xd2, 0xb2, 0x7a, 0x3e, 0x43, 0xa7, 0x81, 0x3d,
  0x46, 0x74, 0x91, 0x3d, 0x19, 0x3a, 0x31, 0xbe, 0xd0, 0xec, 0x87, 0xbd,
  0x0e, 0x9e, 0x45, 0x3d, 0x61, 0x57, 0x20, 0x3d, 0x2c, 0xcd, 0x8e, 0xbe,
  0xbb, 0x60, 0xca, 0xbd, 0x6f, 0x99, 0x6b, 0xbd, 0xab, 0xab, 0x1f, 0xbe,
  0x12, 0x89, 0x93, 0xbe, 0xa7, 0xbd, 0xb3, 0xbe, 0x52, 0x53, 0x8c, 0xbe,
  0xaa, 0xa7, 0xea, 0xbd, 0x89, 0xdc, 0xa4, 0xbe, 0x9f, 0x6c, 0x93, 0xbd,
  0x9b, 0x33, 0x17, 0x3e, 0xf8, 0x59, 0x8b, 0xbd, 0x7c, 0x1c, 0x94, 0x3d,
  0x3a, 0x1e, 0x34, 0x3d, 0x6a, 0x03, 0xe4, 0xbd, 0xd0, 0x68, 0x89, 0xbe,
  0xff, 0xa8, 0xf4, 0x3d, 0xc6, 0x6f, 0xe7, 0xbd, 0x33, 0x26, 0x8d, 0xbd,
  0x5a, 0xa1, 0xa0, 0xbd, 0xe2, 0x76, 0x95, 0xbe, 0x81, 0x33, 0x3d, 0x3e,
  0x6f, 0x19, 0x8d, 0x3e, 0x32, 0xc1, 0x09, 0xbe, 0x61, 0xa5, 0x58, 0x3d,
  0xd1, 0xfd, 0x1b, 0x3e, 0x54, 0x67, 0x4f, 0x3e, 0xb8, 0xe3, 0x8b, 0xbd,
  0x07, 0x93, 0x90, 0x3e, 0xb0, 0x70, 0xbf, 0x3e, 0x58, 0x2c, 0x60, 0x3e,
  0xc8, 0xdf, 0xf7, 0xbc, 0x7d, 0x85, 0x63, 0x3e, 0xd7, 0x41, 0x38, 0xbe,
  0x26, 0x58, 0xb4, 0xbc, 0xb9, 0xc3, 0x3a, 0xbd, 0x74, 0xdf, 0x6b, 0x3d,
  0x5c, 0xbf, 0xb3, 0x3d, 0x1b, 0x64, 0xd7, 0xbd, 0x1d, 0x01, 0xce, 0xbd,
  0x94, 0x57, 0x6c, 0xbe, 0x92, 0xd4, 0xe7, 0xbd, 0x59, 0x26, 0x4b, 0x3e,
  0x80, 0xcb, 0xa0, 0xbc, 0x3c, 0x7c, 0xd3, 0xbd, 0x57, 0xff, 0x20, 0xbd,
  0x76, 0xb2, 0x93, 0xbd, 0x70, 0x11, 0xfe, 0x3e, 0x63, 0xff, 0x11, 0x3d,
  0x8e, 0x43, 0x83, 0xbe, 0x62, 0xd9, 0x10, 0xbd, 0x9b, 0x25, 0x82, 0xbe,
  0xb0, 0xcf, 0x38, 0xba, 0xb8, 0x45, 0x98, 0x3d, 0x7d, 0x39, 0xff, 0xbd,
  0x29, 0x01, 0x32, 0xbe, 0xa7, 0x28, 0x58, 0x3d, 0x8a, 0x81, 0xae, 0xbd,
  0xd1, 0x16, 0xa3, 0xbe, 0xf9, 0xae, 0x69, 0x3e, 0x0d, 0x1c, 0x28, 0x3e,
  0x76, 0x1f, 0x1e, 0xbe, 0xa1, 0x85, 0x4f, 0x3e, 0x27, 0xfb, 0x73, 0x3e,
  0x18, 0x55, 0xe1, 0x3d, 0x27, 0x9b, 0x3b, 0xbe, 0x0e, 0x4d, 0x4b, 0xbe,
  0x27, 0x47, 0xe2, 0xbd, 0x77, 0xf1, 0xfb, 0x3c, 0x34, 0x72, 0xa9, 0xbd,
  0x9b, 0x41, 0x99, 0x3e, 0xd0, 0x18, 0xcd, 0xbd, 0x40, 0xf0, 0x1e, 0xbe,
  0x50, 0x4e, 0xb3, 0xbd, 0x1a, 0x09, 0x1c, 0xbe, 0x22, 0x4a, 0x48, 0x3e,
  0x9b, 0x10, 0x41, 0x3e, 0x86, 0x7f, 0x87, 0x3e, 0x26, 0x3e, 0xb1, 0x3d,
  0xf9, 0x89, 0xb6, 0x3d, 0x3f, 0x09, 0x45, 0x3d, 0x27, 0xa7, 0x8e, 0x3d,
  0x09, 0x2b, 0x0e, 0x3d, 0x9d, 0x9f, 0x9d, 0x3d, 0x4b, 0x57, 0x14, 0xbe,
  0xea, 0x17, 0x81, 0x3c, 0xed, 0x52, 0x3d, 0x3d, 0xd4, 0x34, 0x85, 0x3e,
  0xcf, 0xe1, 0xa2, 0x3e, 0xd0, 0x7a, 0x3b, 0xbe, 0x91, 0x32, 0x67, 0x3e,
  0x22, 0x89, 0x9e, 0x3e, 0xbd, 0x31, 0xa2, 0x3e, 0x09, 0x3c, 0x92, 0x3e,
  0x9e, 0xa7, 0x27, 0x3d, 0x37, 0x74, 0x15, 0xbe, 0xf5, 0x77, 0x4e, 0x3e,
  0xba, 0x5e, 0x9e, 0xbe, 0x54, 0x51, 0x54, 0xbd, 0xca, 0x76, 0x45, 0xbe,
  0xff, 0xb1, 0x88, 0xbb, 0x08, 0xa3, 0xbc, 0xbd, 0x20, 0xb5, 0xaf, 0x3e,
  0x15, 0xef, 0x9f, 0xbe, 0x39, 0xf6, 0x0a, 0x3e, 0x04, 0x1c, 0x89, 0xbe,
  0x3d, 0x5b, 0xec, 0xbb, 0x20, 0x0e, 0xbf, 0xbd, 0xf3, 0x11, 0x10, 0x3e,
  0xd4, 0x3f, 0x76, 0x3d, 0x7a, 0x25, 0xff, 0x3c, 0x65, 0x8f, 0xd6, 0xbd,
  0x08, 0x5e, 0x71, 0x3e, 0x0b, 0x14, 0x55, 0xbc, 0x30, 0xeb, 0x53, 0xbe,
  0x5e, 0xf3, 0xf7, 0x3d, 0x83, 0xe7, 0x81, 0xbd, 0x97, 0x74, 0x5b, 0xbe,
  0x36, 0x5a, 0x97, 0xbd, 0x48, 0xef, 0x7d, 0xbd, 0x42, 0x3e, 0x86, 0xbe,
  0xe2, 0xce, 0xa9, 0xbd, 0x45, 0xf9, 0xf5, 0xbd, 0xb3, 0xb9, 0x9e, 0xbe,
  0x32, 0x6f, 0x78, 0xbe, 0x37, 0x90, 0x3d, 0x3d, 0x5d, 0x3a, 0xf4, 0x3d,
  0x85, 0x01, 0xc8, 0xbd, 0xba, 0xd4, 0x0f, 0xbe, 0x9b, 0xcf, 0xdb, 0xbd,
  0x4d, 0xda, 0xe8, 0xbd, 0x5f, 0x82, 0x8d, 0x3d, 0x2a, 0x5c, 0x71, 0xbd,
  0x15, 0xe4, 0x70, 0xbd, 0x45, 0x49, 0x56, 0xbd, 0xf5, 0x0c, 0x69, 0xbc,
  0x85, 0x42, 0x91, 0x3e, 0xc1, 0xdd, 0x64, 0x3e, 0xcc, 0x89, 0x04, 0xbd,
  0xc2, 0xda, 0x0e, 0x3f, 0xdd, 0xe9, 0xe2, 0x3e, 0xc3, 0x80, 0x05, 0x3f,
  0x31, 0x88, 0x8e, 0xbc, 0xf6, 0x97, 0x56, 0x3e, 0xd8, 0x08, 0x9d, 0xbd,
  0x2b, 0xf9, 0x0a, 0xbe, 0x99, 0xf9, 0xe6, 0xbd, 0xd5, 0x7b, 0x08, 0xbe,
  0x47, 0xf2, 0x16, 0xbd, 0x2f, 0xdc, 0x94, 0x3e, 0xe0, 0x34, 0x00, 0x3e,
  0x5b, 0x53, 0xd6, 0x3e, 0x48, 0x05, 0x92, 0x3e, 0xe6, 0x81, 0xa5, 0x3e,
  0xf3, 0xe0, 0xc7, 0x3e, 0x61, 0xc3, 0x2e, 0x3c, 0x4b, 0x6a, 0xfd, 0xbd,
  0x51, 0x01, 0x0d, 0xbe, 0x68, 0x2c, 0x6a, 0x3e, 0xb0, 0x75, 0xa4, 0x3c,
  0x8b, 0x24, 0x05, 0xbe, 0xb8, 0xd0, 0x4a, 0x3e, 0xe5, 0x18, 0x4b, 0xbe,
  0x35, 0xcc, 0x19, 0x3e, 0x8e, 0xc8, 0x30, 0xbe, 0x51, 0xc1, 0x73, 0xbe,
  0x90, 0xd0, 0x8c, 0x3e, 0xef, 0xb8, 0x84, 0xbd, 0x3b, 0x3a, 0x04, 0x3b,
  0x13, 0x36, 0xca, 0xbd, 0x9f, 0x8a, 0xc6, 0x3e, 0x1d, 0x03, 0x03, 0x3e,
  0xf1, 0xad, 0xf0, 0xbd, 0x54, 0x80, 0xc9, 0xbd, 0x77, 0x8c, 0xcb, 0x3e,
  0x2e, 0x49, 0x0d, 0xbe, 0xf4, 0x00, 0x79, 0xbe, 0xb0, 0x71, 0x19, 0xbe,
  0x1c, 0x29, 0xd1, 0x3d, 0x7a, 0x50, 0x80, 0xbe, 0xb3, 0xd7, 0x68, 0xbd,
  0x8c, 0xe1, 0xfc, 0xbd, 0x8d, 0xc8, 0xc2, 0xbb, 0x9d, 0xc5, 0x96, 0xbd,
  0xed, 0xba, 0x8a, 0xbe, 0x8c, 0x8e, 0x86, 0xbe, 0x3f, 0x66, 0xb6, 0x3d,
  0x1e, 0xb1, 0x54, 0xbd, 0x51, 0x8b, 0x81, 0x3d, 0xf8, 0x04, 0x79, 0x3e,
  0xc4, 0x08, 0x2e, 0xbe, 0x2a, 0x41, 0x32, 0x3e, 0x0e, 0x88, 0x57, 0x3e,
  0xf4, 0x0c, 0xb9, 0xbb, 0x79, 0xb2, 0xca, 0x3d, 0x63, 0x16, 0x54, 0xbe,
  0x18, 0x87, 0x1a, 0xbe, 0x85, 0x2b, 0xfc, 0x3d, 0x7b, 0xc3, 0x8b, 0x3c,
  0x99, 0x7f, 0xc3, 0x3c, 0x0a, 0x57, 0x76, 0xbd, 0x19, 0x6b, 0xd0, 0x3a,
  0x19, 0x93, 0x37, 0x3e, 0x7a, 0x24, 0x53, 0x3e, 0x01, 0xba, 0xa3, 0xbb,
  0x14, 0xa6, 0xab, 0x3d, 0x83, 0xd2, 0x45, 0xbd, 0x02, 0x78, 0x72, 0xbe,
  0xd4, 0x06, 0xc7, 0x3d, 0x56, 0xbb, 0xb7, 0xbd, 0xae, 0x5d, 0xaa, 0xbd,
  0x73, 0x78, 0xd8, 0x3c, 0x95, 0x95, 0x63, 0xbe, 0x90, 0x6f, 0xe8, 0xbc,
  0xcf, 0xb0, 0xf9, 0x3d, 0x0d, 0x04, 0x76, 0xbd, 0x03, 0x1a, 0x19, 0x3e,
  0x14, 0xb2, 0xa0, 0x3d, 0x65, 0x61, 0x8e, 0xbd, 0xc4, 0xba, 0x58, 0xbe,
  0x0b, 0x09, 0xda, 0x3d, 0xda, 0x98, 0xac, 0xbd, 0x21, 0x24, 0x39, 0x3c,
  0x80, 0x66, 0x3b, 0xbe, 0xe0, 0xb8, 0x96, 0x3d, 0x04, 0x08, 0xaa, 0xbc,
  0xfa, 0x13, 0x71, 0xbd, 0x6c, 0x73, 0xd6, 0xbd, 0xad, 0x55, 0x80, 0xbe,
  0x46, 0x21, 0x80, 0x3e, 0x53, 0x10, 0x4c, 0x3e, 0xe8, 0xd1, 0x32, 0x3e,
  0x6d, 0x45, 0x3d, 0xbe, 0xe0, 0x3a, 0x4d, 0xbe, 0x21, 0x93, 0x2d, 0x3e,
  0xa9, 0x3f, 0xa6, 0x3d, 0xa4, 0x4e, 0x80, 0xbe, 0xc1, 0x52, 0xf0, 0xbd,
  0x67, 0xa9, 0x18, 0x3e, 0x97, 0x83, 0x6b, 0x3e, 0x26, 0x70, 0x76, 0xbe,
  0xad, 0x45, 0x69, 0x3d, 0x77, 0x62, 0xca, 0xbd, 0x71, 0xe5, 0xf3, 0xbd,
  0x65, 0x2d, 0x03, 0xbe, 0x39, 0x4e, 0x0c, 0xbe, 0xac, 0xc6, 0x90, 0xbe,
  0x96, 0x89, 0x5a, 0xbe, 0x19, 0x56, 0x05, 0xbe, 0xb4, 0xa9, 0x33, 0x3d,
  0xec, 0x3f, 0xe1, 0x3a, 0x58, 0x27, 0x04, 0x3e, 0x4e, 0xe7, 0x2e, 0xbe,
  0x10, 0x04, 0x38, 0x3e, 0x2e, 0xa3, 0xf8, 0xbd, 0x5e, 0xdd, 0x29, 0xbe,
  0x04, 0x14, 0x02, 0x3e, 0x38, 0x3f, 0x89, 0xbd, 0x4d, 0x85, 0x90, 0xbe,
  0xf0, 0xf7, 0xe6, 0x3c, 0x3f, 0x22, 0xa3, 0x3d, 0x26, 0xf2, 0xff, 0x3c,
  0xe2, 0xf3, 0x87, 0x3b, 0xd6, 0x97, 0x92, 0xbd, 0xb1, 0x33, 0x04, 0xba,
  0x36, 0xe9, 0x67, 0x3e, 0xc0, 0xc9, 0x3d, 0xbe, 0x00, 0x5d, 0x2c, 0x3e,
  0x5a, 0xb0, 0xe4, 0xbd, 0x58, 0xf6, 0xe3, 0xbc, 0xfa, 0x9e, 0x1b, 0xbe,
  0xac, 0x37, 0x06, 0x3d, 0xd9, 0x77, 0xb6, 0xbd, 0xec, 0x04, 0x3f, 0xbe,
  0x68, 0xae, 0x09, 0xbe, 0x4c, 0xae, 0x1f, 0xbe, 0xc0, 0x37, 0xa2, 0x3e,
  0x21, 0x53, 0xc0, 0xbd, 0xdd, 0xc3, 0x5e, 0xbe, 0x40, 0xe6, 0x1a, 0xbb,
  0x83, 0x19, 0x98, 0x3e, 0x8c, 0xfc, 0xfe, 0xbd, 0x32, 0xd9, 0xdb, 0x3d,
  0xc1, 0xbe, 0x6f, 0x3d, 0x4c, 0x71, 0x04, 0xbe, 0x86, 0xb6, 0xea, 0x3d,
  0x83, 0xd5, 0x10, 0xbe, 0xd6, 0x50, 0x0c, 0xbe, 0x13, 0x75, 0x82, 0xbd,
  0x5c, 0x49, 0xd3, 0x3e, 0x81, 0x24, 0x18, 0x3b, 0x2b, 0x9b, 0x4f, 0x3e,
  0xbd, 0x15, 0xc5, 0x3b, 0xc3, 0x10, 0x85, 0xbd, 0xe2, 0x56, 0x0f, 0x3e,
  0x59, 0xb3, 0x57, 0x3e, 0x8d, 0xb2, 0x8b, 0xbd, 0x39, 0xcb, 0x90, 0x3e,
  0x47, 0x76, 0x98, 0xbc, 0xab, 0xf9, 0x29, 0xbe, 0xdd, 0xf9, 0x8f, 0x3d,
  0x5e, 0xd6, 0x35, 0xbe, 0x75, 0xef, 0x20, 0x3e, 0x55, 0x6c, 0x7c, 0x3e,
  0xc3, 0xc2, 0x36, 0xbd, 0x02, 0x91, 0x9c, 0x3e, 0x9a, 0x39, 0x4a, 0x3e,
  0x28, 0x8f, 0x03, 0x3e, 0x28, 0x74, 0x69, 0xbd, 0xce, 0xce, 0x2b, 0xbd,
  0x3c, 0x8f, 0xcf, 0x3d, 0x91, 0xe2, 0x86, 0xbe, 0x7a, 0x1c, 0x84, 0x3d,
  0x33, 0xbb, 0x87, 0x3e, 0x98, 0x46, 0x5c, 0xbe, 0xd1, 0xce, 0x9a, 0x3d,
  0xfb, 0x1f, 0xa1, 0x3b, 0x06, 0x8e, 0xee, 0x3c, 0xc2, 0x98, 0x7a, 0x3e,
  0xd3, 0xdd, 0x45, 0xbe, 0xd9, 0xce, 0x54, 0x3d, 0xb6, 0x67, 0xa5, 0x3e,
  0x45, 0x49, 0x9d, 0x3b, 0xb4, 0x06, 0xd2, 0x3c, 0xc1, 0x72, 0x36, 0x3e,
  0x32, 0x89, 0x03, 0xbe, 0xc5, 0x31, 0x64, 0x3e, 0x73, 0xfa, 0x51, 0x3e,
  0xc0, 0xbb, 0xec, 0x3d, 0x54, 0x8d, 0xdd, 0xbd, 0x2d, 0xe6, 0xe6, 0xbd,
  0x46, 0xdb, 0xa9, 0x3c, 0x89, 0xe6, 0x04, 0xbe, 0x9e, 0xf6, 0xf8, 0x3d,
  0xd8, 0x43, 0x71, 0x3e, 0x3b, 0x9a, 0x53, 0x3e, 0x81, 0x66, 0xa9, 0xbd,
  0x7a, 0x2c, 0x44, 0x3e, 0x07, 0x50, 0xfb, 0xbe, 0x8c, 0x56, 0x9a, 0x3e,
  0x8d, 0x0d, 0x8e, 0xbe, 0xe2, 0xe7, 0x2f, 0xbe, 0xdf, 0xfc, 0x4a, 0xbe,
  0x73, 0xfc, 0x85, 0x3b, 0x7a, 0xb9, 0xef, 0x3c, 0xf6, 0xc3, 0x91, 0x3c,
  0x74, 0x8a, 0x0e, 0x3d, 0x6a, 0x30, 0xdd, 0x3d, 0xf9, 0x8f, 0xb3, 0x3d,
  0xab, 0x9d, 0x99, 0xbd, 0x85, 0xfd, 0x8c, 0x3d, 0x20, 0xf4, 0x72, 0xbe,
  0xd1, 0x61, 0xf9, 0x3d, 0x3b, 0x1d, 0x08, 0xbe, 0x0a, 0x39, 0xb6, 0xbd,
  0x1e, 0x4d, 0x0a, 0x3e, 0x64, 0x50, 0x24, 0xbe, 0x7c, 0x0d, 0xf3, 0xbd,
  0xfc, 0x1a, 0x37, 0x3e, 0xb0, 0xbb, 0x62, 0x3d, 0xbc, 0xc4, 0xae, 0xb9,
  0x23, 0x0a, 0x8a, 0x3c, 0xc8, 0x73, 0x95, 0xbd, 0x83, 0x89, 0x28, 0xbe,
  0x99, 0xb4, 0xd3, 0xbe, 0x86, 0xdb, 0x70, 0xbe, 0x6a, 0xb9, 0xd9, 0x3d,
  0x07, 0x31, 0x05, 0xbd, 0x91, 0x54, 0x34, 0x3e, 0xc5, 0x2e, 0x9b, 0x3d,
  0x87, 0xfc, 0x3f, 0x3d, 0x4a, 0x58, 0x76, 0xbe, 0xca, 0x85, 0x94, 0xbe,
  0x15, 0x74, 0x80, 0xbd, 0x47, 0xe6, 0x27, 0x3e, 0xdb, 0x2a, 0x42, 0x3d,
  0x3c, 0x47, 0x2b, 0xbe, 0xfb, 0xb8, 0xa6, 0xbd, 0xb3, 0x57, 0x15, 0x3e,
  0xf0, 0x91, 0x6e, 0xbc, 0xcf, 0x30, 0x4a, 0x3e, 0x6a, 0x72, 0x48, 0x3e,
  0xbe, 0xe7, 0xfa, 0xbd, 0x0f, 0xec, 0x46, 0x3e, 0xde, 0xc5, 0x18, 0x3d,
  0xb0, 0x23, 0xc6, 0xbe, 0x06, 0x72, 0x51, 0x3e, 0x0a, 0x75, 0xbc, 0xbe,
  0x65, 0x1e, 0xf5, 0xbd, 0xd8, 0x5c, 0xc6, 0xb9, 0x54, 0x88, 0x72, 0x3e,
  0x65, 0xe0, 0x01, 0x3e, 0x66, 0x33, 0xf5, 0xbd, 0xd2, 0x1a, 0xc0, 0xbd,
  0xa1, 0x58, 0x81, 0x3e, 0x77, 0x7a, 0xad, 0x3d, 0x25, 0xcb, 0x57, 0xbe,
  0x87, 0xb1, 0x6d, 0xbd, 0xf3, 0xfc, 0x16, 0x3e, 0xa8, 0x75, 0x49, 0x3e,
  0xe6, 0x53, 0x80, 0xbd, 0x22, 0x49, 0x3f, 0x3e, 0x2a, 0xfe, 0xfe, 0x3c,
  0xe3, 0xdf, 0xc1, 0x3d, 0x2b, 0x89, 0xad, 0xbd, 0x90, 0x69, 0x3f, 0xbe,
  0x17, 0x44, 0xab, 0xbc, 0x10, 0x75, 0x10, 0xbc, 0x8c, 0x40, 0x5e, 0xbe,
  0x20, 0x69, 0x50, 0xbe, 0xcc, 0xad, 0xc2, 0xbd, 0xd1, 0xce, 0x00, 0x3e,
  0xcf, 0x82, 0x3a, 0xbe, 0xa1, 0x76, 0x5a, 0x3e, 0x19, 0x7c, 0x79, 0x3d,
  0xc0, 0x20, 0x8d, 0x3d, 0x26, 0x94, 0x76, 0xbe, 0x12, 0x9e, 0x01, 0x3e,
  0x7f, 0x03, 0x2b, 0x3d, 0xfa, 0xfd, 0x87, 0xbe, 0x62, 0xe3, 0x95, 0x3e,
  0x10, 0x2f, 0x83, 0xbe, 0xd6, 0xc4, 0xca, 0x3d, 0x51, 0x7c, 0x97, 0x3e,
  0xcb, 0xef, 0xc4, 0x3e, 0xfd, 0x19, 0xaa, 0x3d, 0x27, 0x30, 0x97, 0x3e,
  0xdf, 0xd9, 0x7d, 0x3e, 0xa4, 0xe5, 0x18, 0x3e, 0x31, 0xd8, 0xf0, 0xbc,
  0x93, 0xa6, 0x95, 0xbe, 0x7d, 0xe7, 0x5d, 0xbe, 0x6c, 0xee, 0x14, 0xbd,
  0x4a, 0xb0, 0x37, 0xbe, 0xce, 0x5f, 0x93, 0xbd, 0xe6, 0x51, 0xc8, 0x3d,
  0xf4, 0x44, 0xe2, 0x3c, 0x41, 0xf4, 0x00, 0x3c, 0x71, 0xdb, 0xbc, 0x3e,
  0x76, 0x14, 0xa4, 0xbd, 0x97, 0x14, 0x26, 0x3e, 0x9e, 0x4b, 0x52, 0x3e,
  0xe6, 0x52, 0x45, 0xbd, 0x80, 0x19, 0x10, 0xbe, 0x00, 0xb1, 0xac, 0x3d,
  0x98, 0xff, 0xbe, 0xbd, 0xe4, 0xcf, 0x09, 0xbe, 0x53, 0xcd, 0x72, 0x3e,
  0x89, 0x61, 0x92, 0xbd, 0x1b, 0x4a, 0x7d, 0x3e, 0x1b, 0x1b, 0xb5, 0xbc,
  0x94, 0x15, 0x02, 0xbe, 0x78, 0xbc, 0x85, 0x3e, 0x2a, 0x62, 0x4d, 0x3e,
  0x22, 0x42, 0x83, 0xbe, 0x7d, 0x57, 0xfe, 0x3c, 0x5f, 0xe0, 0x38, 0xbe,
  0xaf, 0xfb, 0x9e, 0xbe, 0x41, 0x8c, 0x89, 0xbd, 0x29, 0x88, 0x03, 0xbe,
  0x33, 0xbd, 0xa3, 0xbd, 0x7c, 0x9a, 0x83, 0xbd, 0x38, 0x87, 0x31, 0xbe,
  0xbf, 0xb5, 0xb3, 0xbb, 0xf3, 0x8e, 0x65, 0xbe, 0x53, 0xaa, 0x85, 0x3e,
  0x62, 0xff, 0xea, 0x3b, 0x09, 0xe2, 0x12, 0x3d, 0x7f, 0xbc, 0x32, 0x3e,
  0x3a, 0x08, 0x14, 0x3e, 0x59, 0x43, 0xaf, 0x3e, 0x00, 0xc2, 0xd7, 0x3d,
  0xe0, 0xf0, 0x12, 0xbe, 0x26, 0x30, 0x84, 0xbe, 0xf2, 0xa0, 0x26, 0xbe,
  0xc3, 0x47, 0x85, 0xbe, 0xaf, 0xdc, 0x3c, 0xbe, 0xc0, 0xa6, 0x90, 0xbe,
  0xdd, 0x60, 0x23, 0xbe, 0x39, 0x83, 0x8a, 0xbe, 0x52, 0x32, 0x9e, 0xbc,
  0x82, 0xd9, 0x01, 0xbd, 0x4e, 0x9f, 0x55, 0x3e, 0xb8, 0x85, 0x68, 0xbd,
  0xe3, 0x92, 0xa0, 0xbd, 0xe8, 0x85, 0x44, 0x3e, 0xdd, 0x01, 0x39, 0xbe,
  0xc5, 0x0e, 0x11, 0x3e, 0x62, 0xc2, 0x12, 0xbe, 0xe0, 0xef, 0x65, 0xbe,
  0xd8, 0x2a, 0x4c, 0x3d, 0x71, 0x3b, 0x51, 0x3e, 0x79, 0xd3, 0x90, 0x3e,
  0xc3, 0xfd, 0x43, 0x3e, 0xb6, 0xb7, 0xb1, 0xbd, 0x97, 0x33, 0xcd, 0xbd,
  0x4d, 0xe1, 0x04, 0xbb, 0xb1, 0x49, 0x29, 0x3e, 0x86, 0x0d, 0x8f, 0x3e,
  0x9f, 0x79, 0x52, 0x3e, 0xd9, 0x49, 0x8e, 0xbd, 0x9a, 0xa4, 0xc1, 0xbe,
  0xa0, 0x1d, 0x39, 0xbe, 0xb0, 0x7d, 0x57, 0xbb, 0xbc, 0x9d, 0x00, 0x3e,
  0xbf, 0x25, 0xbe, 0x3c, 0x18, 0x5e, 0xb5, 0x3d, 0x1f, 0xed, 0xa2, 0xbd,
  0xc9, 0x0d, 0xe4, 0x3d, 0xb6, 0x56, 0x97, 0x3d, 0xa9, 0xad, 0x21, 0xbe,
  0x1c, 0x31, 0x48, 0xbe, 0xbc, 0xba, 0x67, 0x3d, 0x72, 0x76, 0x5b, 0x3c,
  0x40, 0x8b, 0xe5, 0xbd, 0x77, 0xc1, 0xce, 0x3d, 0x60, 0x34, 0xb2, 0xbd,
  0x3d, 0x12, 0x4f, 0xbd, 0x0b, 0xeb, 0x20, 0xbd, 0x42, 0x41, 0x83, 0x3e,
  0x18, 0xc7, 0xf7, 0x3d, 0xac, 0xf1, 0x89, 0xbe, 0x29, 0xe2, 0x55, 0x3d,
  0xa4, 0x34, 0x8a, 0x3d, 0xc4, 0x59, 0x1f, 0x3e, 0xb6, 0x67, 0x8c, 0xbe,
  0x66, 0xcd, 0x86, 0xbb, 0x80, 0xdc, 0x73, 0x3e, 0x7f, 0xa4, 0x2d, 0xbe,
  0x6e, 0xcb, 0x08, 0x3e, 0xf1, 0xa1, 0xcd, 0x3d, 0x78, 0xd2, 0x72, 0xbe,
  0x1b, 0xbd, 0x77, 0xbe, 0xfb, 0x4d, 0xd7, 0xbd, 0xfa, 0x35, 0x7c, 0xbe,
  0xa4, 0x54, 0xb3, 0xbd, 0xeb, 0x55, 0xb8, 0xbd, 0x6a, 0x7f, 0xb1, 0x3d,
  0x68, 0x6a, 0xbe, 0x3c, 0x2c, 0xd8, 0x22, 0xbe, 0x5a, 0x26, 0xe5, 0x3d,
  0x42, 0xe0, 0xe4, 0x3d, 0xc3, 0xa3, 0x8a, 0xbd, 0x28, 0x5b, 0xa6, 0xbd,
  0x9d, 0xd8, 0x13, 0x3e, 0x63, 0x3f, 0x54, 0xbe, 0x7c, 0x21, 0xe2, 0xbd,
  0xa1, 0xb4, 0x9b, 0x3d, 0xef, 0x79, 0x1a, 0x3e, 0x8e, 0x0b, 0x06, 0xbd,
  0x69, 0x42, 0xde, 0x3e, 0xd6, 0x2b, 0x5e, 0x3e, 0x1f, 0xc3, 0x4d, 0x3e,
  0x0e, 0x0a, 0x27, 0x3e, 0x1d, 0xa5, 0x39, 0x3e, 0x2d, 0x5b, 0x8e, 0xbe,
  0x2e, 0x22, 0x28, 0x3d, 0xd7, 0x6d, 0x98, 0xbd, 0xd0, 0x41, 0xd5, 0x3d,
  0x5e, 0xbe, 0x19, 0x3e, 0xd0, 0xd3, 0x9a, 0xbc, 0xc1, 0xc0, 0xa1, 0x3e,
  0x60, 0x94, 0x66, 0x3e, 0xae, 0xbb, 0x95, 0xbe, 0xaf, 0x6e, 0x33, 0x3d,
  0x82, 0xbe, 0xc8, 0x3b, 0x1d, 0x87, 0x21, 0x3e, 0x52, 0x6a, 0x49, 0x3d,
  0x63, 0xec, 0x3b, 0xbe, 0x9d, 0x65, 0x44, 0x3c, 0x53, 0x31, 0x7a, 0x3e,
  0x16, 0x7c, 0x16, 0xbe, 0x37, 0x01, 0xdc, 0x3d, 0x7c, 0xd1, 0xa8, 0x3e,
  0xf0, 0x11, 0xc0, 0x3e, 0x94, 0xc7, 0x71, 0x3d, 0x63, 0xb9, 0x3f, 0xbd,
  0xb8, 0x35, 0x0a, 0xbe, 0xdc, 0x0b, 0xe4, 0xbd, 0x16, 0x4b, 0xf7, 0x3d,
  0xa6, 0xb4, 0x6a, 0x3e, 0x1a, 0x57, 0x4c, 0x3d, 0x3c, 0x7e, 0x87, 0x3d,
  0x17, 0x22, 0x83, 0x3e, 0x94, 0x44, 0x6c, 0x3d, 0x53, 0x6c, 0x10, 0x3e,
  0x2f, 0xab, 0x81, 0xbd, 0x35, 0xf1, 0xb4, 0x3c, 0x39, 0xeb, 0x9e, 0xbe,
  0x5e, 0xf2, 0xa0, 0xbe, 0x3e, 0x64, 0x85, 0xbd, 0xd6, 0x6c, 0x67, 0xbe,
  0x82, 0xd9, 0x76, 0x3d, 0x7e, 0x6e, 0xa8, 0x3d, 0xb5, 0xf9, 0x6e, 0x3d,
  0x07, 0xdf, 0xa1, 0xbe, 0x44, 0x6c, 0x0d, 0x3e, 0xca, 0x56, 0x81, 0xbd,
  0x86, 0x09, 0x9b, 0xbd, 0xcc, 0xe2, 0x02, 0x3e, 0xa2, 0x51, 0x1f, 0xbe,
  0xc6, 0x83, 0x17, 0x3e, 0x35, 0x1c, 0xe9, 0x3d, 0xec, 0x8b, 0x7f, 0x3d,
  0xec, 0x98, 0x1e, 0x3d, 0x65, 0x4f, 0x42, 0x3e, 0xec, 0x5a, 0x8c, 0xbe,
  0xf6, 0xbb, 0xc6, 0xbc, 0x74, 0x20, 0xfe, 0x3d, 0x0b, 0xd7, 0x1f, 0xbe,
  0x88, 0x42, 0xba, 0xbe, 0xc6, 0x00, 0xfc, 0xbd, 0xc8, 0xbe, 0x36, 0xbd,
  0x04, 0xb0, 0x27, 0x3a, 0x13, 0x0f, 0xe4, 0xbb, 0xda, 0x65, 0x4a, 0x3e,
  0x85, 0x72, 0x86, 0xbe, 0xa8, 0x98, 0xf7, 0x3d, 0x4f, 0x71, 0xf3, 0x3a,
  0x52, 0x04, 0xc5, 0x3d, 0x57, 0x39, 0x48, 0xbb, 0x52, 0x57, 0xb1, 0xbd,
  0xf6, 0xdb, 0x34, 0xbe, 0xa3, 0xb4, 0xf9, 0xbb, 0xaa, 0xc1, 0xe5, 0x3d,
  0x47, 0x5a, 0xcd, 0x3d, 0x16, 0x87, 0x48, 0xbd, 0x72, 0xc6, 0x9e, 0xbd,
  0x43, 0xb1, 0xe8, 0x3d, 0xd4, 0x58, 0x3f, 0xbe, 0x7b, 0x71, 0x05, 0xbe,
  0x2e, 0x93, 0x76, 0xbe, 0x84, 0xa0, 0x09, 0xbd, 0xd1, 0x27, 0x10, 0xbe,
  0xca, 0xad, 0xa5, 0xbe, 0xfa, 0xba, 0x86, 0xbe, 0x07, 0x71, 0x15, 0x3e,
  0x17, 0x85, 0x29, 0x3e, 0x74, 0x05, 0x2f, 0x3e, 0x5d, 0x01, 0x5f, 0x3e,
  0x0a, 0xbd, 0xae, 0xbd, 0x43, 0xfb, 0xb6, 0xbd, 0xaf, 0xda, 0xe5, 0xbd,
  0x21, 0x06, 0xcb, 0xbd, 0xb1, 0x89, 0xb5, 0xbe, 0x72, 0x3d, 0x44, 0xbe,
  0x8f, 0x54, 0x05, 0x3e, 0xd5, 0xb3, 0xa5, 0x3e, 0x58, 0x70, 0x99, 0x3d,
  0x48, 0x25, 0xfc, 0xbd, 0x82, 0xe8, 0x8d, 0x3e, 0x73, 0xd4, 0x04, 0x3e,
  0x61, 0xc0, 0x5c, 0xbe, 0x8b, 0x41, 0x45, 0xbe, 0xd5, 0x19, 0x5a, 0xbe,
  0xa9, 0x4d, 0x13, 0x3e, 0xb9, 0x21, 0xfd, 0x3d, 0x40, 0xb2, 0x88, 0xbe,
  0xc2, 0xbd, 0x5f, 0x3e, 0xca, 0xd8, 0x4e, 0x3e, 0x91, 0x65, 0x14, 0x3e,
  0xd7, 0x02, 0x8a, 0xbc, 0x59, 0xe3, 0x27, 0xbd, 0x0f, 0x38, 0x5d, 0x3e,
  0x6a, 0x0e, 0x04, 0xbd, 0x7a, 0x4d, 0xb9, 0xbc, 0x6e, 0xe9, 0xa5, 0x3d,
  0x7e, 0x31, 0x6c, 0xbc, 0xc4, 0xb2, 0x88, 0xbe, 0xb6, 0xb8, 0x79, 0x3c,
  0xd8, 0x1a, 0x63, 0x3e, 0xfd, 0x8f, 0x64, 0xbe, 0x91, 0xbc, 0xda, 0x3e,
  0xcb, 0x8a, 0xa8, 0x3e, 0xcb, 0x1f, 0x81, 0x3c, 0x7d, 0x8e, 0xd3, 0xbd,
  0xfa, 0x05, 0x67, 0x3d, 0x83, 0xc0, 0x83, 0xbb, 0x7f, 0xfc, 0x75, 0x3c,
  0xbc, 0xa2, 0x9e, 0xbe, 0xf3, 0xdd, 0xf0, 0xbd, 0xd5, 0x45, 0xc6, 0xbe,
  0x49, 0xac, 0x33, 0xbd, 0xd4, 0xa7, 0x1d, 0x3d, 0x2f, 0xa5, 0xe5, 0x3c,
  0x91, 0x1d, 0x47, 0x3e, 0x6b, 0x7f, 0xb0, 0x3d, 0x72, 0xed, 0x1f, 0x3e,
  0xb2, 0xb9, 0x81, 0xbe, 0x9d, 0xb4, 0xc8, 0x3d, 0xb7, 0x0c, 0xba, 0xbb,
  0x3a, 0xfb, 0x92, 0xbe, 0x2a, 0x5f, 0xa8, 0xbe, 0x72, 0x81, 0x46, 0x3b,
  0x21, 0xf7, 0x14, 0x3d, 0x5d, 0x70, 0x2e, 0x3e, 0x5a, 0x6a, 0xee, 0x3d,
  0x90, 0x39, 0x99, 0xbe, 0xac, 0x97, 0x67, 0xbd, 0xaf, 0x61, 0x66, 0xbe,
  0x68, 0x35, 0xd1, 0x3d, 0x51, 0xe6, 0x17, 0xbc, 0x15, 0xc5, 0x86, 0xbd,
  0x15, 0x48, 0x5e, 0xbd, 0x25, 0x79, 0x1f, 0xbe, 0x8f, 0xf7, 0x94, 0x3d,
  0x6f, 0x1e, 0x10, 0xbe, 0x70, 0x06, 0xb4, 0x3d, 0xbe, 0xf4, 0x46, 0xbe,
  0xce, 0x22, 0xee, 0x3d, 0x10, 0xa2, 0xaa, 0x3d, 0xd6, 0x43, 0x91, 0x3d,
  0xb5, 0xfd, 0x73, 0xbd, 0xfa, 0xdf, 0x62, 0x3e, 0x3c, 0x8a, 0x28, 0xbe,
  0x13, 0xc9, 0x9c, 0xbe, 0x73, 0x26, 0x72, 0xbe, 0xdc, 0x37, 0xce, 0xbd,
  0x51, 0x7d, 0x34, 0x3e, 0x2d, 0xb7, 0x28, 0x3e, 0x9a, 0x37, 0x8d, 0xbe,
  0x49, 0x08, 0x3b, 0xbe, 0x7f, 0xb9, 0x3a, 0xbb, 0xc9, 0x99, 0x25, 0xbe,
  0xe5, 0xcf, 0x48, 0xbc, 0xb6, 0x57, 0xb9, 0xbd, 0x1a, 0x89, 0x4b, 0x3d,
  0xe9, 0x1f, 0x9a, 0x3d, 0x0d, 0xf1, 0x2b, 0x3c, 0xe8, 0x8c, 0x87, 0x3e,
  0x6a, 0x65, 0xe4, 0xbd, 0x19, 0xa4, 0x62, 0x3d, 0xb9, 0x9f, 0x4e, 0xbe,
  0xfc, 0x04, 0x4f, 0xbd, 0x43, 0x96, 0x48, 0x3e, 0xfb, 0x1e, 0x86, 0xbc,
  0x17, 0x03, 0xbc, 0xbd, 0xbc, 0x45, 0xc9, 0x3d, 0x99, 0xf7, 0x6f, 0xbd,
  0x39, 0x22, 0x7d, 0x3e, 0x2b, 0x12, 0xac, 0x3d, 0x68, 0xf6, 0x5d, 0xbd,
  0x4c, 0x68, 0x19, 0x3e, 0xdd, 0x13, 0x45, 0xbe, 0xaa, 0xa2, 0x9c, 0xbe,
  0x6f, 0xb1, 0x5e, 0xbe, 0x9c, 0xee, 0xf4, 0x3c, 0xd2, 0xca, 0x78, 0x3e,
  0x1a, 0x09, 0xf4, 0x3d, 0x34, 0x72, 0x0c, 0xbe, 0xad, 0x8e, 0xaa, 0x3d,
  0x91, 0x18, 0x06, 0x3e, 0xa6, 0xcd, 0x8e, 0x3e, 0xbe, 0x3f, 0x5d, 0x3e,
  0x36, 0x11, 0x23, 0xbe, 0xb1, 0x51, 0x2a, 0x3e, 0x2e, 0xbc, 0x00, 0x3a,
  0x72, 0x6c, 0xeb, 0xbd, 0x8c, 0x07, 0xa9, 0x3c, 0x8e, 0x58, 0x09, 0xbd,
  0xb5, 0xd3, 0xd2, 0x3d, 0x9f, 0x32, 0x4d, 0xbe, 0xb2, 0x82, 0x00, 0x3f,
  0xad, 0x9a, 0x24, 0xbd, 0x15, 0xf8, 0x25, 0x3c, 0x98, 0xea, 0xaa, 0x3d,
  0x9f, 0xd0, 0x4a, 0xbe, 0xec, 0x21, 0x87, 0xbe, 0x0c, 0x70, 0xef, 0xbd,
  0x06, 0xd3, 0x96, 0x3e, 0xf7, 0x1a, 0x10, 0xbe, 0x7e, 0x96, 0x6f, 0x3e,
  0x3c, 0x78, 0x8e, 0xbe, 0x8d, 0xef, 0xa8, 0xbd, 0x31, 0x7d, 0x11, 0x3e,
  0xc4, 0xb8, 0xc9, 0xbd, 0xdd, 0x37, 0x3d, 0x3e, 0xc8, 0x2e, 0xc9, 0x3d,
  0xec, 0xa0, 0xdb, 0x3d, 0x9f, 0x00, 0xfc, 0x3d, 0xea, 0x07, 0x1b, 0xbe,
  0x8a, 0x57, 0x3a, 0x3e, 0x1e, 0x9b, 0xf8, 0xbd, 0x6d, 0x8b, 0xd9, 0x3d,
  0xc2, 0x7c, 0x97, 0x3d, 0x90, 0xe9, 0x89, 0x3e, 0xe8, 0x18, 0x0c, 0x3e,
  0x3b, 0x5d, 0x9c, 0xbd, 0x8b, 0x12, 0xae, 0x3d, 0x9b, 0xa2, 0x6b, 0xbe,
  0x87, 0xd2, 0x55, 0xbc, 0x5a, 0x80, 0xda, 0x3c, 0x1c, 0x1f, 0x81, 0x3d,
  0x2b, 0x24, 0xb4, 0xbe, 0x5c, 0x76, 0x61, 0x3e, 0xa5, 0x12, 0xa4, 0xbc,
  0x1c, 0xe7, 0x25, 0xbe, 0xeb, 0x70, 0x05, 0x3e, 0x9b, 0xb2, 0x89, 0x3d,
  0x74, 0x3c, 0x11, 0x3d, 0x9b, 0x40, 0x02, 0xbe, 0xd4, 0xf7, 0x91, 0xbd,
  0x0f, 0x61, 0xc1, 0x3d, 0x46, 0xc8, 0x63, 0xbd, 0xb4, 0xdb, 0xa6, 0xbd,
  0xfa, 0x0f, 0x57, 0x3e, 0xd8, 0x1a, 0x7c, 0xbe, 0x43, 0xa4, 0xcc, 0x3d,
  0x71, 0xf9, 0x2d, 0x3e, 0xc1, 0x57, 0xb3, 0xbe, 0xdb, 0x4d, 0xbc, 0xbe,
  0x42, 0x9c, 0xb3, 0x3d, 0xcc, 0x27, 0xa7, 0x3d, 0x9d, 0xa4, 0x95, 0x3d,
  0x29, 0xaa, 0x08, 0xbe, 0x9e, 0xfe, 0xff, 0xff, 0x04, 0x00, 0x00, 0x00,
  0x08, 0x00, 0x00, 0x00, 0xba, 0x8c, 0xdb, 0xbd, 0xbf, 0x8c, 0xdb, 0x3d,
  0xb2, 0xfe, 0xff, 0xff, 0x04, 0x00, 0x00, 0x00, 0x78, 0x00, 0x00, 0x00,
  0xe1, 0x51, 0x87, 0xbd, 0x54, 0x73, 0x08, 0x3d, 0x83, 0x3d, 0x5d, 0xbd,
  0x43, 0xc9, 0x96, 0x3d, 0xe8, 0x78, 0x83, 0xbd, 0x39, 0xb0, 0x86, 0xbc,
  0xab, 0x99, 0x99, 0x3d, 0x61, 0xdb, 0x3c, 0xbe, 0x4f, 0x9d, 0x6e, 0x3d,
  0x2e, 0x68, 0x40, 0x3c, 0x36, 0xe9, 0x91, 0xbd, 0x9f, 0x27, 0xf9, 0x3d,
  0x88, 0x51, 0xa2, 0xbd, 0x18, 0xb0, 0xa1, 0xbd, 0x63, 0xa5, 0x10, 0x3d,
  0x7f, 0x1f, 0xa5, 0xbd, 0x62, 0xf7, 0x8a, 0xb9, 0xca, 0x2f, 0xe6, 0xbc,
  0x82, 0xc9, 0x2f, 0xbd, 0xd8, 0x1f, 0x00, 0x3b, 0xc0, 0x49, 0x14, 0xbd,
  0xc0, 0x59, 0x12, 0xbe, 0x93, 0xe4, 0x09, 0xbd, 0x77, 0xb1, 0xdb, 0xbd,
  0x27, 0xd9, 0x19, 0x3d, 0xd0, 0x07, 0x46, 0xbd, 0xd6, 0x69, 0xa1, 0x3d,
  0xd0, 0xbe, 0x2f, 0x3e, 0xcb, 0x77, 0x25, 0xbd, 0xa1, 0x3b, 0xc6, 0xbc,
  0x36, 0xff, 0xff, 0xff, 0x04, 0x00, 0x00, 0x00, 0x28, 0x00, 0x00, 0x00,
  0x4d, 0xb2, 0xf3, 0x3b, 0x9a, 0xf5, 0x09, 0x3e, 0x02, 0x82, 0x51, 0xbd,
  0x09, 0xfe, 0x42, 0xbe, 0x73, 0x2b, 0x34, 0x3e, 0x76, 0x80, 0xce, 0xbd,
  0x57, 0x63, 0x32, 0x3e, 0x1d, 0xa3, 0x41, 0x3e, 0x97, 0xfc, 0x0a, 0x3d,
  0xba, 0xfd, 0x73, 0xbd, 0xc8, 0xfa, 0xff, 0xff, 0xcc, 0xfa, 0xff, 0xff,
  0x0f, 0x00, 0x00, 0x00, 0x4d, 0x4c, 0x49, 0x52, 0x20, 0x43, 0x6f, 0x6e,
  0x76, 0x65, 0x72, 0x74, 0x65, 0x64, 0x2e, 0x00, 0x01, 0x00, 0x00, 0x00,
  0x14, 0x00, 0x00, 0x00, 0x00, 0x00, 0x0e, 0x00, 0x18, 0x00, 0x14, 0x00,
  0x10, 0x00, 0x0c, 0x00, 0x08, 0x00, 0x04, 0x00, 0x0e, 0x00, 0x00, 0x00,
  0x14, 0x00, 0x00, 0x00, 0x1c, 0x00, 0x00, 0x00, 0x24, 0x01, 0x00, 0x00,
  0x28, 0x01, 0x00, 0x00, 0x2c, 0x01, 0x00, 0x00, 0x04, 0x00, 0x00, 0x00,
  0x6d, 0x61, 0x69, 0x6e, 0x00, 0x00, 0x00, 0x00, 0x04, 0x00, 0x00, 0x00,
  0xcc, 0x00, 0x00, 0x00, 0x84, 0x00, 0x00, 0x00, 0x50, 0x00, 0x00, 0x00,
  0x14, 0x00, 0x00, 0x00, 0x00, 0x00, 0x0e, 0x00, 0x1a, 0x00, 0x14, 0x00,
  0x10, 0x00, 0x0c, 0x00, 0x0b, 0x00, 0x04, 0x00, 0x0e, 0x00, 0x00, 0x00,
  0x1c, 0x00, 0x00, 0x00, 0x00, 0x00, 0x00, 0x09, 0x1c, 0x00, 0x00, 0x00,
  0x20, 0x00, 0x00, 0x00, 0x01, 0x00, 0x00, 0x00, 0x00, 0x00, 0x06, 0x00,
  0x08, 0x00, 0x04, 0x00, 0x06, 0x00, 0x00, 0x00, 0x00, 0x00, 0x80, 0x3f,
  0x01, 0x00, 0x00, 0x00, 0x0a, 0x00, 0x00, 0x00, 0x01, 0x00, 0x00, 0x00,
  0x09, 0x00, 0x00, 0x00, 0x9a, 0xff, 0xff, 0xff, 0x10, 0x00, 0x00, 0x00,
  0x00, 0x00, 0x00, 0x08, 0x0c, 0x00, 0x00, 0x00, 0x10, 0x00, 0x00, 0x00,
  0x90, 0xfb, 0xff, 0xff, 0x01, 0x00, 0x00, 0x00, 0x09, 0x00, 0x00, 0x00,
  0x03, 0x00, 0x00, 0x00, 0x08, 0x00, 0x00, 0x00, 0x06, 0x00, 0x00, 0x00,
  0x03, 0x00, 0x00, 0x00, 0xca, 0xff, 0xff, 0xff, 0x10, 0x00, 0x00, 0x00,
  0x00, 0x00, 0x00, 0x08, 0x10, 0x00, 0x00, 0x00, 0x14, 0x00, 0x00, 0x00,
  0xba, 0xff, 0xff, 0xff, 0x00, 0x00, 0x00, 0x01, 0x01, 0x00, 0x00, 0x00,
  0x08, 0x00, 0x00, 0x00, 0x03, 0x00, 0x00, 0x00, 0x07, 0x00, 0x00, 0x00,
  0x05, 0x00, 0x00, 0x00, 0x01, 0x00, 0x00, 0x00, 0x00, 0x00, 0x0e, 0x00,
  0x16, 0x00, 0x00, 0x00, 0x10, 0x00, 0x0c, 0x00, 0x0b, 0x00, 0x04, 0x00,
  0x0e, 0x00, 0x00, 0x00, 0x18, 0x00, 0x00, 0x00, 0x00, 0x00, 0x00, 0x08,
  0x18, 0x00, 0x00, 0x00, 0x1c, 0x00, 0x00, 0x00, 0x00, 0x00, 0x06, 0x00,
  0x08, 0x00, 0x07, 0x00, 0x06, 0x00, 0x00, 0x00, 0x00, 0x00, 0x00, 0x01,
  0x01, 0x00, 0x00, 0x00, 0x07, 0x00, 0x00, 0x00, 0x03, 0x00, 0x00, 0x00,
  0x00, 0x00, 0x00, 0x00, 0x04, 0x00, 0x00, 0x00, 0x02, 0x00, 0x00, 0x00,
  0x01, 0x00, 0x00, 0x00, 0x0a, 0x00, 0x00, 0x00, 0x01, 0x00, 0x00, 0x00,
  0x00, 0x00, 0x00, 0x00, 0x0b, 0x00, 0x00, 0x00, 0xa8, 0x03, 0x00, 0x00,
  0x38, 0x03, 0x00, 0x00, 0xe4, 0x02, 0x00, 0x00, 0x8c, 0x02, 0x00, 0x00,
  0x44, 0x02, 0x00, 0x00, 0xf8, 0x01, 0x00, 0x00, 0xac, 0x01, 0x00, 0x00,
  0x34, 0x01, 0x00, 0x00, 0xb4, 0x00, 0x00, 0x00, 0x50, 0x00, 0x00, 0x00,
  0x04, 0x00, 0x00, 0x00, 0x9a, 0xfc, 0xff, 0xff, 0x00, 0x00, 0x00, 0x01,
  0x10, 0x00, 0x00, 0x00, 0x10, 0x00, 0x00, 0x00, 0x0b, 0x00, 0x00, 0x00,
  0x28, 0x00, 0x00, 0x00, 0x84, 0xfc, 0xff, 0xff, 0x19, 0x00, 0x00, 0x00,
  0x53, 0x74, 0x61, 0x74, 0x65, 0x66, 0x75, 0x6c, 0x50, 0x61, 0x72, 0x74,
  0x69, 0x74, 0x69, 0x6f, 0x6e, 0x65, 0x64, 0x43, 0x61, 0x6c, 0x6c, 0x3a,
  0x30, 0x00, 0x00, 0x00, 0x02, 0x00, 0x00, 0x00, 0x01, 0x00, 0x00, 0x00,
  0x02, 0x00, 0x00, 0x00, 0xe2, 0xfc, 0xff, 0xff, 0x00, 0x00, 0x00, 0x01,
  0x10, 0x00, 0x00, 0x00, 0x10, 0x00, 0x00, 0x00, 0x0a, 0x00, 0x00, 0x00,
  0x40, 0x00, 0x00, 0x00, 0xcc, 0xfc, 0xff, 0xff, 0x32, 0x00, 0x00, 0x00,
  0x73, 0x65, 0x71, 0x75, 0x65, 0x6e, 0x74, 0x69, 0x61, 0x6c, 0x2f, 0x79,
  0x5f, 0x70, 0x72, 0x65, 0x64, 0x2f, 0x4d, 0x61, 0x74, 0x4d, 0x75, 0x6c,
  0x3b, 0x73, 0x65, 0x71, 0x75, 0x65, 0x6e, 0x74, 0x69, 0x61, 0x6c, 0x2f,
  0x79, 0x5f, 0x70, 0x72, 0x65, 0x64, 0x2f, 0x42, 0x69, 0x61, 0x73, 0x41,
  0x64, 0x64, 0x00, 0x00, 0x02, 0x00, 0x00, 0x00, 0x01, 0x00, 0x00, 0x00,
  0x02, 0x00, 0x00, 0x00, 0x42, 0xfd, 0xff, 0xff, 0x00, 0x00, 0x00, 0x01,
  0x10, 0x00, 0x00, 0x00, 0x10, 0x00, 0x00, 0x00, 0x09, 0x00, 0x00, 0x00,
  0x5c, 0x00, 0x00, 0x00, 0x2c, 0xfd, 0xff, 0xff, 0x4c, 0x00, 0x00, 0x00,
  0x73, 0x65, 0x71, 0x75, 0x65, 0x6e, 0x74, 0x69, 0x61, 0x6c, 0x2f, 0x64,
  0x65, 0x6e, 0x73, 0x65, 0x5f, 0x31, 0x2f, 0x4d, 0x61, 0x74, 0x4d, 0x75,
  0x6c, 0x3b, 0x73, 0x65, 0x71, 0x75, 0x65, 0x6e, 0x74, 0x69, 0x61, 0x6c,
  0x2f, 0x64, 0x65, 0x6e, 0x73, 0x65, 0x5f, 0x31, 0x2f, 0x52, 0x65, 0x6c,
  0x75, 0x3b, 0x73, 0x65, 0x71, 0x75, 0x65, 0x6e, 0x74, 0x69, 0x61, 0x6c,
  0x2f, 0x64, 0x65, 0x6e, 0x73, 0x65, 0x5f, 0x31, 0x2f, 0x42, 0x69, 0x61,
  0x73, 0x41, 0x64, 0x64, 0x00, 0x00, 0x00, 0x00, 0x02, 0x00, 0x00, 0x00,
  0x01, 0x00, 0x00, 0x00, 0x0a, 0x00, 0x00, 0x00, 0xbe, 0xfd, 0xff, 0xff,
  0x00, 0x00, 0x00, 0x01, 0x10, 0x00, 0x00, 0x00, 0x10, 0x00, 0x00, 0x00,
  0x08, 0x00, 0x00, 0x00, 0x54, 0x00, 0x00, 0x00, 0xa8, 0xfd, 0xff, 0xff,
  0x46, 0x00, 0x00, 0x00, 0x73, 0x65, 0x71, 0x75, 0x65, 0x6e, 0x74, 0x69,
  0x61, 0x6c, 0x2f, 0x64, 0x65, 0x6e, 0x73, 0x65, 0x2f, 0x4d, 0x61, 0x74,
  0x4d, 0x75, 0x6c, 0x3b, 0x73, 0x65, 0x71, 0x75, 0x65, 0x6e, 0x74, 0x69,
  0x61, 0x6c, 0x2f, 0x64, 0x65, 0x6e, 0x73, 0x65, 0x2f, 0x52, 0x65, 0x6c,
  0x75, 0x3b, 0x73, 0x65, 0x71, 0x75, 0x65, 0x6e, 0x74, 0x69, 0x61, 0x6c,
  0x2f, 0x64, 0x65, 0x6e, 0x73, 0x65, 0x2f, 0x42, 0x69, 0x61, 0x73, 0x41,
  0x64, 0x64, 0x00, 0x00, 0x02, 0x00, 0x00, 0x00, 0x01, 0x00, 0x00, 0x00,
  0x1e, 0x00, 0x00, 0x00, 0x32, 0xfe, 0xff, 0xff, 0x00, 0x00, 0x00, 0x01,
  0x10, 0x00, 0x00, 0x00, 0x10, 0x00, 0x00, 0x00, 0x07, 0x00, 0x00, 0x00,
  0x28, 0x00, 0x00, 0x00, 0x1c, 0xfe, 0xff, 0xff, 0x18, 0x00, 0x00, 0x00,
  0x73, 0x65, 0x71, 0x75, 0x65, 0x6e, 0x74, 0x69, 0x61, 0x6c, 0x2f, 0x79,
  0x5f, 0x70, 0x72, 0x65, 0x64, 0x2f, 0x4d, 0x61, 0x74, 0x4d, 0x75, 0x6c,
  0x00, 0x00, 0x00, 0x00, 0x02, 0x00, 0x00, 0x00, 0x02, 0x00, 0x00, 0x00,
  0x0a, 0x00, 0x00, 0x00, 0x7a, 0xfe, 0xff, 0xff, 0x00, 0x00, 0x00, 0x01,
  0x10, 0x00, 0x00, 0x00, 0x10, 0x00, 0x00, 0x00, 0x06, 0x00, 0x00, 0x00,
  0x28, 0x00, 0x00, 0x00, 0x64, 0xfe, 0xff, 0xff, 0x19, 0x00, 0x00, 0x00,
  0x73, 0x65, 0x71, 0x75, 0x65, 0x6e, 0x74, 0x69, 0x61, 0x6c, 0x2f, 0x64,
  0x65, 0x6e, 0x73, 0x65, 0x5f, 0x31, 0x2f, 0x4d, 0x61, 0x74, 0x4d, 0x75,
  0x6c, 0x00, 0x00, 0x00, 0x02, 0x00, 0x00, 0x00, 0x0a, 0x00, 0x00, 0x00,
  0x1e, 0x00, 0x00, 0x00, 0xc2, 0xfe, 0xff, 0xff, 0x00, 0x00, 0x00, 0x01,
  0x10, 0x00, 0x00, 0x00, 0x10, 0x00, 0x00, 0x00, 0x05, 0x00, 0x00, 0x00,
  0x24, 0x00, 0x00, 0x00, 0xac, 0xfe, 0xff, 0xff, 0x17, 0x00, 0x00, 0x00,
  0x73, 0x65, 0x71, 0x75, 0x65, 0x6e, 0x74, 0x69, 0x61, 0x6c, 0x2f, 0x64,
  0x65, 0x6e, 0x73, 0x65, 0x2f, 0x4d, 0x61, 0x74, 0x4d, 0x75, 0x6c, 0x00,
  0x02, 0x00, 0x00, 0x00, 0x1e, 0x00, 0x00, 0x00, 0x3c, 0x00, 0x00, 0x00,
  0x06, 0xff, 0xff, 0xff, 0x00, 0x00, 0x00, 0x01, 0x10, 0x00, 0x00, 0x00,
  0x10, 0x00, 0x00, 0x00, 0x04, 0x00, 0x00, 0x00, 0x38, 0x00, 0x00, 0x00,
  0xf0, 0xfe, 0xff, 0xff, 0x28, 0x00, 0x00, 0x00, 0x73, 0x65, 0x71, 0x75,
  0x65, 0x6e, 0x74, 0x69, 0x61, 0x6c, 0x2f, 0x79, 0x5f, 0x70, 0x72, 0x65,
  0x64, 0x2f, 0x42, 0x69, 0x61, 0x73, 0x41, 0x64, 0x64, 0x2f, 0x52, 0x65,
  0x61, 0x64, 0x56, 0x61, 0x72, 0x69, 0x61, 0x62, 0x6c, 0x65, 0x4f, 0x70,
  0x00, 0x00, 0x00, 0x00, 0x01, 0x00, 0x00, 0x00, 0x02, 0x00, 0x00, 0x00,
  0x5a, 0xff, 0xff, 0xff, 0x00, 0x00, 0x00, 0x01, 0x10, 0x00, 0x00, 0x00,
  0x10, 0x00, 0x00, 0x00, 0x03, 0x00, 0x00, 0x00, 0x34, 0x00, 0x00, 0x00,
  0x44, 0xff, 0xff, 0xff, 0x27, 0x00, 0x00, 0x00, 0x73, 0x65, 0x71, 0x75,
  0x65, 0x6e, 0x74, 0x69, 0x61, 0x6c, 0x2f, 0x64, 0x65, 0x6e, 0x73, 0x65,
  0x2f, 0x42, 0x69, 0x61, 0x73, 0x41, 0x64, 0x64, 0x2f, 0x52, 0x65, 0x61,
  0x64, 0x56, 0x61, 0x72, 0x69, 0x61, 0x62, 0x6c, 0x65, 0x4f, 0x70, 0x00,
  0x01, 0x00, 0x00, 0x00, 0x1e, 0x00, 0x00, 0x00, 0xaa, 0xff, 0xff, 0xff,
  0x00, 0x00, 0x00, 0x01, 0x10, 0x00, 0x00, 0x00, 0x10, 0x00, 0x00, 0x00,
  0x02, 0x00, 0x00, 0x00, 0x38, 0x00, 0x00, 0x00, 0x94, 0xff, 0xff, 0xff,
  0x29, 0x00, 0x00, 0x00, 0x73, 0x65, 0x71, 0x75, 0x65, 0x6e, 0x74, 0x69,
  0x61, 0x6c, 0x2f, 0x64, 0x65, 0x6e, 0x73, 0x65, 0x5f, 0x31, 0x2f, 0x42,
  0x69, 0x61, 0x73, 0x41, 0x64, 0x64, 0x2f, 0x52, 0x65, 0x61, 0x64, 0x56,
  0x61, 0x72, 0x69, 0x61, 0x62, 0x6c, 0x65, 0x4f, 0x70, 0x00, 0x00, 0x00,
  0x01, 0x00, 0x00, 0x00, 0x0a, 0x00, 0x00, 0x00, 0x00, 0x00, 0x16, 0x00,
  0x18, 0x00, 0x14, 0x00, 0x00, 0x00, 0x10, 0x00, 0x0c, 0x00, 0x08, 0x00,
  0x00, 0x00, 0x00, 0x00, 0x00, 0x00, 0x07, 0x00, 0x16, 0x00, 0x00, 0x00,
  0x00, 0x00, 0x00, 0x01, 0x14, 0x00, 0x00, 0x00, 0x14, 0x00, 0x00, 0x00,
  0x01, 0x00, 0x00, 0x00, 0x24, 0x00, 0x00, 0x00, 0x04, 0x00, 0x04, 0x00,
  0x04, 0x00, 0x00, 0x00, 0x13, 0x00, 0x00, 0x00, 0x73, 0x65, 0x72, 0x76,
  0x69, 0x6e, 0x67, 0x5f, 0x64, 0x65, 0x66, 0x61, 0x75, 0x6c, 0x74, 0x5f,
  0x78, 0x3a, 0x30, 0x00, 0x02, 0x00, 0x00, 0x00, 0x01, 0x00, 0x00, 0x00,
  0x3c, 0x00, 0x00, 0x00, 0x02, 0x00, 0x00, 0x00, 0x20, 0x00, 0x00, 0x00,
  0x04, 0x00, 0x00, 0x00, 0xf4, 0xff, 0xff, 0xff, 0x19, 0x00, 0x00, 0x00,
  0x00, 0x00, 0x00, 0x19, 0x0c, 0x00, 0x0c, 0x00, 0x0b, 0x00, 0x00, 0x00,
  0x00, 0x00, 0x04, 0x00, 0x0c, 0x00, 0x00, 0x00, 0x09, 0x00, 0x00, 0x00,
  0x00, 0x00, 0x00, 0x09
};
unsigned int tflite_learn_811836_167_len = 10624;
#endif // _EI_CLASSIFIER_TFLITE_LEARN_811836_167_H_
